fffffffe
fffffff4
fffffff5
fffffff9
fffffffa
00000006
00000004
0000000a
fffffffd
0000000a
fffffff8
00000005
00000009
00000005
fffffff1
00000008
ffffffff
00000001
00000002
fffffff9
00000006
fffffff8
fffffff5
00000001
00000005
fffffff8
fffffffa
fffffff8
0000000c
fffffff7
fffffffb
00000000
00000002
00000015
00000013
0000001c
00000013
00000010
00000015
00000011
0000001c
0000001d
fffffffc
ffffffec
ffffffec
00000003
00000026
0000001d
0000001b
00000012
00000015
00000008
00000000
fffffffe
0000000b
00000001
fffffffa
fffffffc
fffffffe
ffffffed
00000012
00000011
00000025
00000025
0000001a
00000001
fffffffb
00000016
0000000e
fffffff7
00000015
fffffffc
00000004
00000019
0000000c
0000001a
00000015
00000014
00000029
00000024
fffffffc
fffffff9
0000000c
00000009
00000003
00000007
fffffffd
0000000f
0000001c
0000000a
00000006
00000011
fffffff0
ffffffeb
fffffff2
00000014
fffffffd
0000000f
0000000f
0000000d
ffffffff
00000008
00000006
0000001b
00000017
00000023
00000024
00000022
0000000c
fffffff0
00000006
00000004
fffffff9
fffffff6
ffffffef
fffffff6
0000000e
fffffffb
ffffffec
fffffff2
fffffff2
fffffff1
fffffff3
fffffffe
fffffffb
fffffffd
00000004
fffffff5
fffffffa
ffffffff
00000005
fffffff9
00000011
00000010
0000001d
00000032
00000025
0000001e
0000000f
0000001c
00000003
fffffffc
fffffff6
ffffffe6
00000004
fffffffc
fffffffc
fffffffb
00000000
0000000a
00000009
00000011
0000000d
00000013
00000000
ffffffef
ffffffed
fffffff1
fffffff5
00000002
00000005
fffffff8
00000008
00000009
00000023
0000001c
00000010
0000000e
fffffffd
fffffff0
fffffff3
ffffffcb
fffffffb
fffffffd
fffffffd
00000007
0000000b
00000012
00000003
0000001f
00000009
00000013
00000008
00000011
0000000a
0000000b
00000005
0000000b
fffffffc
00000012
00000018
0000001b
00000024
00000013
00000005
00000003
fffffffc
ffffffd2
fffffff0
ffffffe4
ffffffe4
ffffffe1
ffffffe8
ffffffe8
0000000c
00000008
00000007
00000019
00000015
00000003
00000007
0000000e
00000015
00000011
00000012
0000000a
00000005
fffffffd
fffffffc
00000015
0000001c
0000001c
0000000e
ffffffff
fffffff7
ffffffe5
00000014
ffffffde
ffffffe5
ffffffe4
ffffffe7
fffffff1
00000015
00000004
fffffff4
0000000f
ffffffff
fffffffa
fffffffa
fffffff6
00000003
00000007
0000000a
fffffff8
fffffffe
00000011
ffffffe4
ffffffe0
00000020
0000002e
fffffff1
fffffff6
00000003
ffffffe7
fffffff8
ffffffe2
fffffffa
ffffffe4
00000001
fffffff7
fffffffb
00000006
ffffffed
fffffffe
ffffffed
ffffffde
ffffffe2
ffffffee
ffffffe6
ffffffed
00000001
00000006
00000002
ffffffff
ffffffed
ffffffeb
00000021
0000000d
ffffffe6
ffffffe9
fffffff3
fffffff3
ffffffd4
ffffffe3
00000000
ffffffff
ffffffee
00000000
00000007
00000011
fffffffd
ffffffef
ffffffeb
ffffffea
ffffffd7
ffffffdf
ffffffed
ffffffe9
fffffffa
ffffffed
fffffff7
fffffffe
ffffffe8
ffffffff
00000025
00000013
fffffff5
ffffffea
fffffffb
ffffffe9
ffffffda
ffffffd2
ffffffd8
fffffff8
00000005
00000012
00000015
0000001a
0000000f
00000016
0000000b
ffffffef
fffffff4
00000007
00000007
00000006
ffffffee
fffffff0
0000000f
0000000d
00000007
fffffffc
00000007
ffffffe3
fffffff2
ffffffe7
fffffff1
fffffffc
ffffffed
ffffffed
ffffffed
fffffffe
0000000c
00000012
0000001f
0000000e
00000012
00000019
fffffff4
ffffffff
fffffff8
00000001
00000007
fffffffe
00000003
fffffff6
00000002
0000000e
00000017
0000001d
fffffffc
ffffffda
ffffffec
ffffffe3
ffffffea
00000002
ffffffe5
ffffffe0
00000016
00000017
00000019
00000029
00000021
00000024
0000003a
0000001d
fffffffe
0000000b
00000009
0000001d
0000001a
ffffffff
0000000a
00000002
fffffff8
0000000b
00000019
00000011
ffffffde
ffffffd0
ffffffcb
ffffffeb
fffffff7
fffffffe
ffffffe4
ffffffec
0000000d
00000013
00000020
0000002f
00000025
00000029
00000035
00000021
00000000
00000007
fffffff2
00000010
00000016
0000000e
0000001c
0000000d
00000018
00000018
00000003
fffffff8
ffffffdd
ffffffe2
ffffffd7
fffffff3
ffffffef
ffffffff
ffffffe9
ffffffeb
0000000a
0000000b
0000000b
0000001a
00000016
00000012
00000018
00000020
00000009
fffffffb
ffffffeb
fffffff2
00000005
0000001e
00000017
0000000c
00000011
00000014
fffffff7
fffffffb
ffffffea
00000004
ffffffd8
ffffffdf
fffffff0
ffffffe6
ffffffe9
ffffffd3
fffffff4
0000000f
0000000c
00000004
0000001c
00000012
0000000f
00000025
fffffffd
ffffffee
fffffff0
ffffffff
00000005
00000025
00000017
ffffffff
00000000
ffffffe7
ffffffed
ffffffef
ffffffdd
fffffff4
ffffffe1
ffffffd0
00000002
ffffffda
ffffffe9
ffffffe3
ffffffe6
ffffffff
00000000
00000007
0000001a
0000000c
00000010
00000016
00000004
fffffff3
00000002
00000001
00000010
00000015
0000001a
00000001
00000010
fffffff0
ffffffea
fffffff2
ffffffed
ffffffee
fffffff4
ffffffc3
fffffffd
ffffffed
fffffff3
ffffffe9
fffffff5
ffffffe3
fffffff7
ffffffff
00000003
fffffffb
00000011
fffffffc
0000000a
00000007
fffffffc
00000003
00000013
0000000c
fffffffa
fffffffa
fffffffb
fffffff1
ffffffe4
ffffffeb
ffffffdc
ffffffdc
fffffff3
ffffffe8
ffffffef
ffffffeb
ffffffef
ffffffeb
fffffffa
ffffffed
ffffffef
ffffffef
fffffff6
fffffffb
00000003
fffffff8
00000002
fffffffe
fffffffc
fffffffa
ffffffff
fffffffa
ffffffff
00000008
fffffffa
00000000
ffffffee
ffffffd0
ffffffe1
ffffffe0
ffffffee
fffffff8
fffffff6
00000008
ffffffee
ffffffeb
fffffff8
fffffff9
ffffffe6
ffffffdd
ffffffee
fffffffa
fffffff8
ffffffed
00000004
fffffff9
fffffffc
fffffff7
ffffffef
fffffff4
ffffffef
fffffff3
fffffff6
fffffff5
ffffffe0
ffffffdb
ffffffe0
00000000
ffffffeb
fffffff4
fffffff9
ffffffe6
ffffffd0
ffffffe7
00000004
fffffff2
ffffffe9
ffffffe4
fffffff8
fffffff8
fffffffd
fffffff4
00000007
0000000a
0000000d
00000011
fffffffc
ffffffff
fffffffc
fffffffa
00000003
fffffffd
fffffff5
ffffffe9
fffffff3
ffffffec
fffffff5
00000000
fffffff0
ffffffea
ffffffd9
fffffffb
fffffffc
ffffffda
ffffffdf
fffffff0
fffffffb
fffffffa
fffffffb
00000012
0000000e
00000019
00000012
00000003
0000000d
fffffffe
fffffff9
fffffff9
fffffff3
fffffff2
fffffff5
fffffff2
fffffffe
fffffff6
00000002
fffffff8
00000009
00000005
ffffffe1
fffffffa
fffffff5
fffffff3
fffffff6
ffffffe2
fffffff3
fffffff5
fffffff5
fffffffd
fffffffa
0000000d
0000001a
00000003
0000000b
00000000
fffffffa
00000004
00000007
00000003
00000003
fffffff8
00000008
fffffffd
ffffffef
fffffff9
fffffff4
00000002
00000004
ffffffea
fffffff8
00000006
ffffffed
ffffffe8
fffffff4
fffffffa
00000003
0000000d
00000006
00000005
fffffffb
0000000c
00000013
fffffff0
fffffffa
0000000d
0000001d
00000005
00000007
00000016
fffffff2
ffffffed
fffffff7
0000000a
00000003
fffffffa
00000002
0000000a
fffffffb
00000003
fffffff4
fffffffd
ffffffec
fffffffe
00000000
0000000a
fffffff4
fffffffd
fffffffe
00000007
00000009
00000008
00000014
00000001
0000000d
00000017
0000000e
00000013
fffffff9
fffffff3
fffffff0
fffffffc
0000000b
00000001
fffffff3
00000007
00000019
00000018
0000001b
00000021
0000000e
00000009
0000000c
00000009
00000018
00000004
0000000c
fffffff3
00000006
fffffffd
00000013
ffffffe9
00000015
0000001a
fffffff2
00000012
00000010
fffffff2
fffffffd
0000000b
00000008
0000000c
fffffff7
fffffff6
fffffff8
fffffff0
00000002
00000015
00000001
fffffff7
ffffffee
00000006
fffffffb
ffffffd7
00000000
fffffff8
fffffff9
ffffffec
00000015
00000009
00000005
fffffff1
ffffffe2
fffffff4
00000003
00000003
00000001
ffffffff
00001aca
00000000
00000000
00000000
00000000
00000000
00000000
00000000
00000000
00000000
00000000
00000000
00000000
00000000
00000000
7fffffff
00000000
00000000
00000000
00000000
00000000
00000000
00000000
00000000
00000000
00000000
00000000
00000000
00000000
00000000
00000000
00000000
00000000
00000000
00000000
00000000
00000000
00000000
00000000
00000000
00000000
00000000
00000000
00000000
00000000
00000000
00000000
00000000
00000000
00000000
00000000
00000000
00000000
00000000
00000000
00000000
00000000
00000000
00000000
00000000
00000000
00000000
00000000
00000000
00000000
00000000
00000000
00000000
00000000
00000000
00000000
00000000
00000000
00000000
00000000
00000000
00000000
00000000
00000000
00000000
00000000
00000000
00000000
00000000
00000000
00000000
00000000
00000000
00000000
00000000
00000000
00000000
00000000
00000000
00000000
00000000
00000000
00000000
00000000
00000000
00000000
00000000
00000000
00000000
00000000
00000000
00000000
00000000
00000000
00000000
00000000
00000000
00000000
00000000
00000000
00000000
00000000
00000000
00000000
00000000
00000000
00000000
00000000
00000000
00000000
00000000
00000000
00000000
00000000
00000000
00000000
00000000
00000000
00000000
00000000
00000000
00000000
00000000
00000000
00000000
00000000
00000000
00000000
00000000
00000000
00000000
00000000
00000000
00000000
00000000
00000000
00000000
00000000
00000000
00000000
00000000
00000000
00000000
00000000
00000000
00000000
00000000
00000000
00000000
00000000
00000000
00000000
00000000
00000000
00000000
00000000
00000000
00000000
00000000
00000000
00000000
00000000
00000000
00000000
00000000
00000000
00000000
00000000
00000000
00000000
00000000
00000000
00000000
00000000
00000000
00000000
00000000
00000000
00000000
00000000
00000000
00000000
00000000
00000000
00000000
00000000
00000000
00000000
00000000
00000000
00000000
00000000
00000000
00000000
00000000
00000000
00000000
00000000
00000000
00000000
00000000
00000000
00000000
00000000
00000000
00000000
00000000
00000000
00000000
00000000
00000000
00000000
00000000
00000000
00000000
00000000
00000000
00000000
00000000
00000000
00000000
00000000
00000000
00000000
00000000
