00000008
00000009
00000009
fffffff9
fffffffb
fffffff6
fffffffd
00000009
00000000
00000005
00000009
00000003
00000005
fffffffe
00000000
ffffffff
0000000a
fffffffa
fffffffb
00000003
fffffffd
ffffffff
00000001
00000001
fffffff8
00000001
00000003
00000002
fffffff4
fffffff9
00000008
fffffffa
fffffffe
00000005
00000005
fffffff2
ffffffec
fffffffc
fffffff8
ffffffe3
ffffffe8
ffffffdf
00000016
fffffffd
fffffff0
ffffffe1
ffffffe8
ffffffde
ffffffe3
fffffffc
00000009
00000006
00000007
fffffff9
fffffff9
0000000a
fffffff6
00000006
fffffffd
ffffffef
00000002
ffffffef
ffffffe5
ffffffe7
fffffff0
fffffff7
fffffff8
ffffffe4
ffffffef
ffffffed
fffffffa
0000001c
0000000b
ffffffda
ffffffb6
ffffffd6
ffffffdd
ffffffee
ffffffe6
fffffff0
00000000
fffffff5
00000006
00000007
00000008
00000004
00000009
fffffff6
fffffff3
00000008
00000011
0000001e
00000026
00000015
0000000a
00000000
0000000c
00000003
fffffffb
00000007
0000000a
ffffffe2
ffffffc8
ffffffb5
ffffffc5
ffffffe6
ffffffe8
ffffffdd
ffffffef
fffffff0
fffffffe
0000000a
fffffff5
fffffffe
00000019
00000025
00000018
00000027
00000015
00000005
00000013
0000000e
00000017
0000000c
0000000d
0000000b
fffffff9
00000011
00000011
ffffffee
ffffffdc
ffffffd7
ffffffd0
ffffffec
fffffffc
fffffffb
00000016
00000016
0000000e
00000005
00000002
00000002
00000006
00000019
00000012
00000029
00000026
00000020
00000011
00000014
00000005
fffffffb
00000008
00000014
0000000c
0000001b
00000015
fffffff2
fffffff0
ffffffc2
ffffffad
ffffffb6
ffffffe7
ffffffe9
00000008
ffffffef
fffffff9
ffffffff
00000005
00000001
00000020
00000010
00000012
00000001
00000011
fffffffd
0000000b
0000000d
0000000d
0000000e
00000003
fffffffa
0000000f
00000004
0000000d
fffffff5
fffffff0
ffffffeb
ffffffc9
ffffffcc
ffffffd3
fffffff6
00000012
00000006
fffffff0
00000004
00000002
00000015
00000031
0000001e
0000000f
0000000d
00000002
00000007
ffffffe8
fffffffc
fffffff7
fffffffe
fffffff6
fffffff4
0000000a
fffffffb
00000009
fffffff9
ffffffe9
ffffffd3
ffffffda
ffffffce
ffffffe3
00000007
00000012
00000004
fffffffa
fffffff9
fffffffb
0000001d
0000001a
00000023
00000016
fffffff8
fffffff4
fffffff2
ffffffee
ffffffeb
fffffff5
fffffff3
ffffffeb
fffffffa
0000001b
0000002d
fffffffc
fffffff7
ffffffe0
ffffffd7
ffffffcd
ffffffd9
ffffffff
00000016
0000002e
fffffffd
ffffffe3
ffffffe4
00000010
00000028
00000011
00000016
00000006
fffffffc
ffffffee
ffffffed
ffffffd5
ffffffdd
ffffffdf
ffffffea
00000002
00000024
00000038
0000003e
00000010
fffffff3
ffffffec
ffffffdb
ffffffcf
ffffffde
fffffffa
0000000c
fffffffb
00000004
ffffffe1
ffffffdc
0000000b
0000002a
00000012
00000011
fffffffc
ffffffef
ffffffe7
ffffffde
ffffffd8
fffffff0
fffffff3
00000011
00000006
00000020
0000002b
0000001e
00000000
fffffff0
ffffffd9
ffffffdb
ffffffeb
0000000c
0000000a
fffffff6
fffffffb
00000010
fffffff4
00000010
00000008
0000001a
00000025
0000001e
00000014
ffffffec
ffffffe6
ffffffeb
ffffffe9
00000003
00000007
00000019
0000001d
00000016
0000002a
00000008
fffffff3
ffffffea
ffffffd8
ffffffe4
00000004
00000010
fffffffe
fffffff3
ffffffc9
fffffffc
ffffffee
00000026
00000013
0000001e
0000002e
0000001a
0000000c
fffffff3
00000001
0000000f
00000015
00000018
00000020
0000001e
00000011
00000014
0000000d
00000004
00000009
fffffff1
ffffffe6
fffffff1
0000000b
fffffff4
fffffff5
ffffffeb
ffffffeb
0000000a
0000000f
00000018
00000010
00000009
0000002e
00000023
00000017
00000014
0000001c
0000001a
00000019
0000001d
00000025
0000000c
00000012
fffffff7
0000000e
fffffff7
00000011
00000002
00000005
ffffffeb
00000012
0000000a
fffffffe
fffffff3
00000008
00000021
00000009
fffffff4
fffffff3
0000000c
00000023
00000029
00000018
00000014
ffffffff
00000018
00000021
0000001d
0000000d
ffffffef
00000008
ffffffef
00000008
00000011
00000002
fffffffe
fffffff4
00000001
ffffffff
00000003
0000000a
0000001a
00000010
00000011
00000012
ffffffed
fffffff7
fffffff8
0000001b
0000001a
00000022
00000013
0000001a
0000000c
00000017
ffffffff
0000000b
fffffff5
fffffff1
00000009
0000000a
00000001
0000000d
00000012
00000003
0000000a
0000000d
0000001a
00000024
00000019
00000013
ffffffff
00000026
ffffffff
00000012
00000011
00000008
00000018
0000000b
fffffffb
0000000d
00000020
00000008
00000002
fffffffb
fffffffa
fffffff0
fffffffd
0000001a
00000016
00000007
00000003
00000007
fffffffb
00000001
00000019
0000001a
00000014
0000000e
ffffffda
fffffff6
0000000d
fffffffa
fffffffe
0000000a
0000001b
00000007
00000002
0000000a
00000006
fffffffd
ffffffe4
ffffffe5
ffffffc9
ffffffd5
fffffffd
00000021
00000013
00000003
fffffffa
fffffffe
ffffffe7
ffffffe7
fffffff0
fffffff7
0000001f
00000008
fffffff5
fffffffc
fffffff0
00000012
0000000c
00000012
0000000f
ffffffe7
ffffffe4
fffffff6
ffffffe6
fffffff3
fffffff2
ffffffd5
ffffffb8
ffffffc0
fffffff3
0000001e
00000005
00000008
fffffff6
ffffffe5
ffffffea
ffffffec
0000000e
fffffffc
fffffffd
00000010
0000000e
00000013
00000020
0000000c
00000010
00000003
fffffff0
ffffffe1
ffffffc0
ffffffda
ffffffdf
ffffffdb
ffffffe8
ffffffe0
ffffffc9
ffffffd7
ffffffef
00000012
00000017
00000016
fffffffc
fffffff1
fffffff6
fffffff1
ffffffef
ffffffed
ffffffe6
00000003
00000008
00000010
00000012
fffffffa
00000009
ffffffff
ffffffe1
ffffffc7
ffffffb2
ffffffd9
fffffff3
ffffffe7
ffffffff
ffffffdc
ffffffd7
ffffffe2
00000002
00000014
00000003
0000001a
0000001d
00000003
00000000
ffffffed
ffffffe6
fffffff5
fffffffd
fffffff1
fffffff5
00000011
ffffffff
00000008
00000014
ffffffff
ffffffef
ffffffe0
ffffffd9
ffffffd8
ffffffdc
ffffffe9
ffffffed
fffffff8
fffffff8
00000000
00000007
00000015
00000016
00000000
00000004
00000011
00000004
ffffffde
ffffffe8
ffffffdc
ffffffe3
00000001
00000005
0000000b
fffffff6
0000000f
0000000a
0000001a
fffffff8
ffffffda
ffffffd4
ffffffe1
ffffffe4
ffffffef
fffffff2
ffffffff
fffffff7
fffffffa
ffffffff
fffffff6
0000000d
00000000
00000008
00000007
00000009
fffffff7
ffffffd8
ffffffd7
ffffffe3
ffffffff
fffffffe
00000010
fffffffd
00000000
0000000c
00000025
0000000b
00000007
ffffffdd
fffffff3
ffffffe9
ffffffd6
ffffffec
fffffffe
00000013
0000000f
00000018
00000008
00000007
fffffffa
00000012
ffffffff
00000000
fffffff5
ffffffe5
ffffffd9
ffffffe0
fffffff3
ffffffef
0000000b
fffffff4
fffffffa
fffffff6
00000009
fffffff9
00000011
00000007
00000009
00000008
fffffffd
fffffff3
ffffffff
00000010
00000005
00000018
0000000a
ffffffff
fffffffa
00000020
00000000
fffffff1
fffffff6
fffffffe
fffffffd
ffffffed
fffffff9
00000013
0000000d
fffffffc
00000005
fffffff7
00000007
ffffffee
00000001
0000000a
0000001a
0000001f
0000003a
00000024
0000000b
0000002a
00000033
00000023
00000009
00000000
fffffffd
00000001
00000007
0000000f
00000004
fffffff6
00000001
0000000a
fffffff4
fffffff9
00000004
fffffffe
0000000a
0000000b
0000000b
00000002
fffffff4
fffffff0
fffffff4
fffffff9
ffffffff
ffffffff
fffffffd
0000000b
fffffff6
00000008
fffffffa
0000001c
00000015
00000013
00000007
00000023
00000007
00000010
0000001b
ffffffed
00000004
00000006
00000006
00000008
0000000c
0000000a
fffffffd
ffffffff
00000005
00000002
fffffff0
00000005
0000000c
00000012
fffffff0
fffffff2
00000002
00000028
fffffff9
ffffffff
0000001b
0000002c
00000013
00000002
00000018
0000001d
0000001a
00000001
00000009
00000006
ffffffff
fffffff7
000013ff
00000000
00000000
00000000
00000000
00000000
00000000
00000000
00000000
00000000
00000000
00000000
00000000
00000000
00000000
7fffffff
00000000
00000000
00000000
00000000
00000000
00000000
00000000
00000000
00000000
00000000
00000000
00000000
00000000
00000000
00000000
00000000
00000000
00000000
00000000
00000000
00000000
00000000
00000000
00000000
00000000
00000000
00000000
00000000
00000000
00000000
00000000
00000000
00000000
00000000
00000000
00000000
00000000
00000000
00000000
00000000
00000000
00000000
00000000
00000000
00000000
00000000
00000000
00000000
00000000
00000000
00000000
00000000
00000000
00000000
00000000
00000000
00000000
00000000
00000000
00000000
00000000
00000000
00000000
00000000
00000000
00000000
00000000
00000000
00000000
00000000
00000000
00000000
00000000
00000000
00000000
00000000
00000000
00000000
00000000
00000000
00000000
00000000
00000000
00000000
00000000
00000000
00000000
00000000
00000000
00000000
00000000
00000000
00000000
00000000
00000000
00000000
00000000
00000000
00000000
00000000
00000000
00000000
00000000
00000000
00000000
00000000
00000000
00000000
00000000
00000000
00000000
00000000
00000000
00000000
00000000
00000000
00000000
00000000
00000000
00000000
00000000
00000000
00000000
00000000
00000000
00000000
00000000
00000000
00000000
00000000
00000000
00000000
00000000
00000000
00000000
00000000
00000000
00000000
00000000
00000000
00000000
00000000
00000000
00000000
00000000
00000000
00000000
00000000
00000000
00000000
00000000
00000000
00000000
00000000
00000000
00000000
00000000
00000000
00000000
00000000
00000000
00000000
00000000
00000000
00000000
00000000
00000000
00000000
00000000
00000000
00000000
00000000
00000000
00000000
00000000
00000000
00000000
00000000
00000000
00000000
00000000
00000000
00000000
00000000
00000000
00000000
00000000
00000000
00000000
00000000
00000000
00000000
00000000
00000000
00000000
00000000
00000000
00000000
00000000
00000000
00000000
00000000
00000000
00000000
00000000
00000000
00000000
00000000
00000000
00000000
00000000
00000000
00000000
00000000
00000000
00000000
00000000
00000000
00000000
00000000
00000000
00000000
00000000
00000000
