0000000c
fffffff8
00000004
fffffff4
00000000
00000000
fffffffe
0000000c
00000007
00000000
fffffff9
00000001
0000000d
00000004
0000000f
00000003
00000002
0000000a
fffffffd
fffffffd
00000006
00000006
fffffffa
fffffffe
00000002
00000009
00000009
00000005
fffffff9
fffffff6
00000007
00000002
00000008
00000001
0000000c
0000000a
fffffff9
00000014
ffffffff
00000010
0000001c
00000006
0000000b
0000001f
00000018
0000000d
00000015
fffffffb
00000006
00000017
00000004
fffffff7
0000000a
fffffff8
00000004
00000006
fffffffb
00000000
0000000b
fffffff7
fffffffd
00000008
fffffff5
0000000a
fffffffc
00000012
0000001a
0000000b
0000000c
00000015
00000009
00000018
0000002c
00000011
00000021
00000003
0000000f
00000009
ffffffff
ffffffff
fffffffb
00000003
fffffff5
00000002
fffffff4
00000007
00000016
fffffffc
0000000a
00000010
fffffff7
fffffff7
00000015
00000015
00000021
0000002c
00000031
00000027
0000000b
00000013
0000002d
00000021
00000022
00000009
fffffff9
00000002
fffffffb
fffffffe
0000000a
00000017
fffffffa
00000002
fffffffc
00000006
0000001d
00000023
fffffff8
00000006
00000015
0000000b
0000001c
0000001b
0000003b
00000019
00000016
00000007
0000000c
00000014
0000001f
00000017
00000021
00000009
00000007
fffffff5
ffffffee
fffffffe
fffffff2
0000000c
00000001
fffffff2
fffffffa
00000001
00000021
00000005
00000009
fffffffb
fffffff3
00000001
ffffffe5
00000002
fffffff2
fffffff5
fffffff3
fffffff5
0000000c
0000000c
0000000b
ffffffff
0000000c
00000019
00000010
0000001d
00000017
00000001
ffffffff
00000000
00000004
ffffffec
00000001
00000010
fffffffd
00000013
ffffffee
fffffffc
0000000d
fffffffe
fffffff1
fffffff7
00000007
fffffff0
fffffffa
fffffffd
fffffff3
00000000
fffffffe
ffffffff
00000008
0000000c
0000000d
00000014
0000001b
00000006
00000018
0000001b
0000000f
0000000b
fffffff3
0000000e
ffffffe5
ffffffe6
fffffff5
fffffffe
fffffff6
00000000
0000000e
00000000
00000001
0000000f
00000005
fffffffc
00000009
00000002
fffffffc
00000006
0000000d
00000008
fffffffa
fffffff9
0000000b
00000013
00000008
00000005
00000000
00000008
fffffffb
00000002
ffffffe2
00000014
00000007
00000004
0000000b
00000004
0000000a
00000003
0000000b
00000002
00000013
0000000b
0000000b
00000004
00000001
0000000e
00000008
0000001a
0000000d
fffffffa
00000019
00000012
fffffff7
fffffffe
0000002d
00000018
ffffffee
fffffff1
00000006
00000020
0000001b
fffffffb
00000010
0000000a
00000004
00000011
00000008
fffffffd
fffffff7
0000000a
00000001
00000002
00000005
00000001
0000000c
00000001
00000003
0000000b
00000004
00000015
00000024
00000038
00000021
ffffffef
fffffff1
00000002
fffffff6
00000026
00000010
0000000a
00000004
00000012
0000000c
fffffffe
0000000f
fffffffc
fffffff0
00000008
00000009
fffffff9
00000004
00000005
00000009
00000003
00000007
00000004
00000007
00000027
00000030
0000001d
00000021
00000005
fffffff1
fffffffd
fffffff1
00000023
00000008
fffffff8
ffffffff
fffffff8
ffffffe8
fffffff4
ffffffe5
ffffffe6
ffffffd5
fffffff3
0000000f
ffffffe9
ffffffdc
ffffffea
fffffffb
00000005
fffffff4
00000001
00000001
00000006
00000030
00000043
0000003f
0000000f
fffffff5
0000000e
ffffffe7
00000004
fffffff2
fffffff3
ffffffea
fffffff2
ffffffdc
ffffffe8
ffffffdf
ffffffd4
ffffffde
00000009
00000019
fffffff4
ffffffe2
ffffffe8
fffffff2
fffffff7
fffffff1
fffffffa
ffffffe0
fffffff1
0000002b
0000003f
0000003f
0000001d
0000001b
fffffff1
ffffffef
fffffffd
ffffffdb
ffffffe9
ffffffde
ffffffe7
ffffffe7
ffffffed
ffffffdf
ffffffd9
ffffffff
00000023
00000018
00000000
ffffffe9
ffffffe7
ffffffea
ffffffe0
ffffffe0
ffffffd5
ffffffe0
ffffffdf
00000013
00000014
00000032
00000010
00000013
0000000c
00000012
fffffffd
ffffffd5
ffffffe1
ffffffec
ffffffeb
fffffff7
ffffffec
fffffff6
fffffff4
00000017
0000002e
00000028
0000000d
ffffffe9
ffffffec
ffffffed
ffffffd9
ffffffe1
fffffff3
ffffffe7
00000003
00000017
fffffff9
0000001e
00000006
00000001
00000000
00000012
ffffffe8
ffffffd7
ffffffed
fffffff3
00000003
fffffffe
fffffff6
fffffff8
00000004
0000002a
00000039
0000002b
fffffffb
fffffffb
ffffffe1
ffffffec
ffffffda
ffffffdb
ffffffe2
ffffffe7
fffffff7
00000011
fffffffc
00000002
00000013
fffffff9
00000021
00000025
0000000e
fffffffd
00000005
fffffff6
fffffff5
00000001
0000000f
00000015
00000021
0000001b
00000034
00000016
fffffff8
fffffff7
ffffffe1
ffffffda
ffffffef
ffffffd9
fffffff5
fffffff9
0000000c
0000002d
0000000e
00000003
0000001b
fffffff5
0000001b
0000000f
00000023
0000000f
fffffffe
fffffffa
00000004
fffffff5
00000003
00000020
00000016
00000018
00000016
fffffffd
ffffffe1
fffffff4
ffffffee
ffffffe3
fffffff9
00000003
fffffff2
fffffffb
00000019
00000022
fffffff5
00000004
00000013
ffffffff
00000017
00000005
0000000c
00000018
00000003
ffffffef
00000000
ffffffef
0000000e
00000016
0000000b
00000008
ffffffff
fffffff0
fffffff7
00000006
00000000
ffffffeb
00000009
00000003
00000002
00000007
00000020
00000019
00000022
00000010
0000001e
00000005
00000017
fffffff1
fffffff5
00000011
00000001
fffffffd
00000007
00000002
0000000d
00000016
fffffff3
00000000
00000006
fffffff2
0000000e
00000003
00000011
00000011
00000001
00000018
00000012
00000021
0000001a
0000001c
00000027
0000000c
00000001
00000005
0000001c
fffffffa
00000003
00000013
00000008
0000000e
0000000e
00000016
0000000e
00000011
00000006
00000002
0000000f
0000000e
00000017
00000013
00000013
0000002e
00000023
00000020
00000035
00000024
00000020
0000001b
0000001f
0000001d
0000000f
00000011
00000009
00000009
0000001a
00000020
fffffff0
0000001a
00000015
00000007
fffffff4
00000007
00000013
0000000f
0000001a
0000001c
00000021
00000001
00000025
0000001c
0000002b
00000031
00000020
0000002a
00000014
00000010
00000018
00000013
fffffffe
00000015
00000000
00000000
00000025
00000025
00000024
00000014
00000006
fffffffb
00000009
fffffffb
0000000a
0000000e
00000006
0000000e
00000015
00000012
0000001a
0000001c
0000001b
0000001d
00000009
00000000
0000000b
fffffff0
0000001c
00000029
00000003
fffffff5
fffffffb
00000015
0000002b
0000001e
00000004
fffffffc
ffffffed
fffffff3
00000002
fffffffd
0000000e
0000000e
00000019
00000007
0000001b
00000017
00000016
00000017
00000011
0000001d
0000000b
00000019
00000023
00000005
00000009
00000012
fffffffb
fffffff6
00000003
0000000c
00000013
00000009
ffffffeb
fffffff4
ffffffe9
00000001
00000009
00000004
fffffffd
00000018
00000012
0000001f
00000011
00000009
fffffffd
00000009
00000011
fffffff9
ffffffee
00000001
00000002
00000021
00000011
00000007
fffffff8
0000000c
ffffffff
fffffff7
ffffffe9
ffffffe1
ffffffee
00000005
fffffff0
fffffffd
ffffffff
fffffff4
fffffffc
00000009
fffffffa
ffffffe8
fffffffc
fffffffd
00000000
00000005
00000012
fffffffc
ffffffe6
fffffff6
00000000
00000017
0000000a
0000000f
00000006
fffffff6
00000008
fffffffd
fffffff1
ffffffe7
ffffffdf
ffffffd6
ffffffdd
ffffffee
ffffffea
fffffff7
00000001
fffffff4
ffffffe9
ffffffcf
ffffffe2
fffffffa
0000000a
00000001
fffffffd
ffffffe3
ffffffd4
ffffffd5
00000000
00000002
fffffffc
00000001
fffffffe
fffffff4
fffffff7
0000000c
fffffffa
fffffffd
00000008
ffffffff
00000005
fffffff8
ffffffff
00000006
00000018
00000004
00000009
ffffffdb
ffffffe6
fffffffd
ffffffe9
ffffffee
ffffffe1
fffffff8
ffffffee
ffffffe9
fffffffa
fffffff8
fffffff7
fffffffa
fffffffa
fffff216
00000000
00000000
00000000
00000000
00000000
00000000
00000000
00000000
00000000
00000000
00000000
00000000
00000000
00000000
7fffffff
00000000
00000000
00000000
00000000
00000000
00000000
00000000
00000000
00000000
00000000
00000000
00000000
00000000
00000000
00000000
00000000
00000000
00000000
00000000
00000000
00000000
00000000
00000000
00000000
00000000
00000000
00000000
00000000
00000000
00000000
00000000
00000000
00000000
00000000
00000000
00000000
00000000
00000000
00000000
00000000
00000000
00000000
00000000
00000000
00000000
00000000
00000000
00000000
00000000
00000000
00000000
00000000
00000000
00000000
00000000
00000000
00000000
00000000
00000000
00000000
00000000
00000000
00000000
00000000
00000000
00000000
00000000
00000000
00000000
00000000
00000000
00000000
00000000
00000000
00000000
00000000
00000000
00000000
00000000
00000000
00000000
00000000
00000000
00000000
00000000
00000000
00000000
00000000
00000000
00000000
00000000
00000000
00000000
00000000
00000000
00000000
00000000
00000000
00000000
00000000
00000000
00000000
00000000
00000000
00000000
00000000
00000000
00000000
00000000
00000000
00000000
00000000
00000000
00000000
00000000
00000000
00000000
00000000
00000000
00000000
00000000
00000000
00000000
00000000
00000000
00000000
00000000
00000000
00000000
00000000
00000000
00000000
00000000
00000000
00000000
00000000
00000000
00000000
00000000
00000000
00000000
00000000
00000000
00000000
00000000
00000000
00000000
00000000
00000000
00000000
00000000
00000000
00000000
00000000
00000000
00000000
00000000
00000000
00000000
00000000
00000000
00000000
00000000
00000000
00000000
00000000
00000000
00000000
00000000
00000000
00000000
00000000
00000000
00000000
00000000
00000000
00000000
00000000
00000000
00000000
00000000
00000000
00000000
00000000
00000000
00000000
00000000
00000000
00000000
00000000
00000000
00000000
00000000
00000000
00000000
00000000
00000000
00000000
00000000
00000000
00000000
00000000
00000000
00000000
00000000
00000000
00000000
00000000
00000000
00000000
00000000
00000000
00000000
00000000
00000000
00000000
00000000
00000000
00000000
00000000
00000000
00000000
00000000
00000000
