00000003
fffffffd
00000004
fffffff5
00000001
fffffffd
fffffff9
ffffffff
00000008
00000003
fffffffa
00000002
00000002
00000016
0000000e
fffffff7
00000000
00000000
fffffffc
0000000b
00000007
0000000c
00000005
00000003
00000007
0000000a
ffffffff
0000000a
fffffffd
fffffffa
fffffffa
00000000
00000005
0000000d
0000001e
0000001f
0000001c
00000022
0000001d
0000001e
00000020
00000027
fffffffa
00000035
00000025
0000001a
0000002a
00000025
00000025
00000010
00000013
0000000d
0000000a
00000002
00000009
00000000
00000002
fffffffb
00000003
00000019
00000008
00000032
00000027
0000003a
00000027
0000001e
0000002f
00000031
0000002b
00000026
00000023
00000026
00000008
00000014
00000016
0000000c
00000009
0000000a
00000016
0000001c
00000016
00000003
fffffffa
fffffffd
0000000a
fffffffa
00000007
00000011
fffffff7
fffffffb
00000006
ffffffea
ffffffe8
00000014
00000003
fffffff9
fffffff6
00000013
fffffff6
0000000e
0000000e
0000000b
0000000f
0000000d
ffffffd7
fffffff9
00000007
00000003
0000000c
fffffff2
00000002
00000003
fffffffc
fffffffe
fffffff3
ffffffeb
fffffff8
ffffffe7
fffffff7
fffffff1
00000002
00000003
00000008
fffffffd
00000000
00000003
00000004
00000009
00000004
00000017
00000003
00000002
00000003
fffffff5
ffffffff
00000003
fffffff1
ffffffee
00000009
00000022
00000008
00000004
0000001c
fffffffb
00000009
ffffffe2
ffffffeb
00000007
fffffffc
fffffff6
0000000e
0000000f
0000000f
0000000d
00000008
00000004
00000000
ffffffff
00000010
00000008
00000005
fffffffa
fffffffb
00000012
00000013
fffffffa
00000006
0000001b
fffffffd
fffffff3
ffffffff
00000002
0000000d
ffffffe6
fffffff5
00000001
fffffffe
fffffff1
00000001
00000004
00000011
00000004
ffffffef
ffffffdc
ffffffe8
ffffffef
ffffffdd
ffffffe0
ffffffe4
ffffffe8
fffffff6
ffffffff
0000000a
fffffff7
fffffff1
00000005
fffffffe
ffffffe9
ffffffea
fffffff7
fffffffb
fffffff1
ffffffef
fffffff9
fffffffd
00000002
0000000f
00000023
00000012
fffffff4
ffffffeb
ffffffef
ffffffe5
ffffffe4
fffffff2
ffffffea
ffffffed
00000000
00000004
00000008
fffffff8
00000001
00000005
fffffffe
0000001b
ffffffed
fffffffb
fffffffc
fffffff1
fffffffa
fffffff5
fffffffb
fffffffd
00000019
00000025
00000020
0000001a
00000006
fffffff5
ffffffe3
ffffffef
00000001
ffffffe4
fffffff3
fffffff8
fffffffe
ffffffee
fffffff9
fffffff8
ffffffe7
fffffff8
ffffffe1
fffffffc
ffffffdd
0000000a
fffffffd
ffffffe1
fffffff7
fffffffb
fffffffb
00000002
00000005
00000003
0000001f
00000019
fffffff8
ffffffe6
ffffffd7
ffffffef
ffffffef
00000001
fffffff3
fffffff7
0000000e
ffffffea
00000000
ffffffe9
ffffffd4
ffffffcf
ffffffe2
fffffff2
fffffffe
fffffff8
fffffff5
fffffff6
0000000b
0000000a
00000006
ffffffee
00000008
00000008
00000015
00000011
fffffffa
ffffffec
ffffffd4
ffffffe6
0000000a
fffffffa
fffffffd
fffffff1
0000000b
fffffffb
fffffff6
fffffffc
ffffffc3
ffffffc3
ffffffe0
fffffff8
0000001f
fffffff2
fffffff6
ffffffee
00000007
fffffff9
00000004
fffffff9
0000000d
fffffffa
00000002
00000001
ffffffec
ffffffd7
ffffffdd
ffffffe3
ffffffee
fffffff1
ffffffff
fffffff4
fffffffb
fffffffc
fffffff8
00000006
ffffffe0
ffffffba
ffffffe4
fffffff8
00000005
fffffff5
fffffffe
ffffffe7
ffffffff
00000004
00000008
00000009
00000010
fffffff3
0000000a
00000022
00000017
ffffffeb
ffffffe6
ffffffe9
fffffff7
fffffff7
00000004
00000006
00000009
0000000a
00000005
0000003a
0000000b
ffffffc7
fffffff1
00000008
00000005
fffffff7
ffffffee
ffffffe5
00000001
0000000d
00000002
fffffffe
00000002
0000000a
00000006
00000021
0000000c
fffffffb
fffffffb
ffffffec
fffffff7
ffffffef
00000001
0000000d
00000007
00000023
00000023
0000003a
00000015
fffffff3
0000000e
00000018
fffffffc
ffffffff
00000015
fffffff0
0000000e
0000000a
0000000f
fffffffb
fffffffb
00000003
0000001f
00000011
00000010
fffffffd
ffffffe4
fffffff3
fffffff8
fffffffb
00000000
fffffff8
fffffffe
0000000a
0000001f
0000002e
0000003e
00000020
00000013
00000008
fffffff4
0000000f
00000009
ffffffe1
00000011
0000000e
00000002
00000010
00000015
00000008
0000000e
00000011
fffffffe
00000008
fffffff2
00000003
00000001
fffffffb
fffffff3
fffffff6
00000004
fffffff2
fffffff8
0000001a
0000003f
0000000d
00000016
ffffffee
ffffffeb
0000000d
00000007
fffffff9
0000000d
00000005
0000000f
00000001
00000011
00000010
00000014
0000000d
00000001
00000010
00000018
0000000c
fffffffe
fffffff1
ffffffe9
fffffffd
0000000f
ffffffed
0000000b
0000000e
00000066
0000002c
00000027
fffffffc
fffffff7
00000002
ffffffff
fffffffe
00000007
ffffffe8
fffffff1
fffffffa
0000000c
0000000c
00000010
0000000f
0000000a
0000000d
00000008
0000000e
00000004
fffffff7
ffffffeb
00000001
fffffffa
00000006
00000007
00000014
0000003a
ffffffff
00000023
ffffffec
ffffffef
fffffffe
fffffff4
0000000f
fffffff4
ffffffe3
fffffff5
fffffffa
00000000
00000006
00000002
00000010
00000016
0000000d
00000004
00000009
fffffffe
00000002
00000006
fffffff7
00000000
fffffffa
00000014
00000029
00000036
fffffff3
0000002f
fffffffb
fffffff2
00000009
fffffff3
fffffff3
ffffffd7
ffffffdd
fffffff8
fffffff8
00000005
0000001a
00000020
0000000c
00000013
00000011
0000001c
00000002
00000015
00000009
fffffff6
00000007
00000012
0000001c
0000001c
0000000c
00000010
00000027
00000026
00000003
fffffffa
00000013
00000004
fffffffe
fffffff0
ffffffed
fffffff0
00000003
0000000b
0000002a
0000001d
0000001b
00000014
0000001a
0000000b
00000012
00000011
00000016
00000017
00000013
00000014
00000015
0000000e
fffffff8
ffffffea
0000001c
fffffffe
00000000
00000012
00000005
0000000d
ffffffea
ffffffeb
ffffffe4
fffffff9
0000000e
0000001c
00000020
0000001b
0000000b
00000018
0000001c
0000000a
0000000b
00000003
00000011
00000005
0000000f
00000013
00000022
0000001d
00000004
00000005
0000001d
00000008
00000014
00000007
0000000d
0000001a
00000002
00000008
fffffffc
fffffffb
00000008
0000000d
0000001d
00000008
0000000b
0000001b
00000006
00000004
0000000a
fffffffb
00000005
00000003
fffffffd
00000012
00000003
fffffff3
ffffffec
00000009
0000000b
00000003
fffffffb
00000003
00000002
fffffff5
fffffff3
fffffff2
ffffffe3
ffffffe9
00000013
0000000b
00000006
0000000f
0000001b
00000011
00000004
00000010
0000000b
fffffffc
00000000
ffffffff
00000001
00000004
00000006
fffffff8
ffffffd7
00000000
00000007
ffffffff
0000000b
fffffff5
ffffffeb
ffffffc9
ffffffde
ffffffdf
ffffffea
ffffffdb
ffffffdc
fffffff6
fffffff0
fffffffb
fffffff2
00000002
fffffff3
fffffff3
ffffffe8
ffffffe9
ffffffe9
ffffffdc
ffffffd1
ffffffe9
fffffff1
ffffffe9
fffffff4
0000000b
00000011
00000002
fffffff4
fffffff7
fffffff2
fffffff5
fffffffb
ffffffef
ffffffe7
ffffffc8
ffffffbb
ffffffc8
ffffffd6
ffffffe7
ffffffd4
ffffffd1
ffffffd4
ffffffd9
ffffffe1
ffffffd5
ffffffc1
ffffffc5
ffffffc6
ffffffd3
ffffffdf
ffffffe7
ffffffef
00000000
00000011
fffffff5
00000009
ffffffff
0000000b
fffffffe
0000000d
00000000
fffffffa
ffffffeb
ffffffd9
ffffffc5
ffffffd1
ffffffee
fffffff1
ffffffd3
ffffffc4
ffffffc2
ffffffd3
ffffffcc
ffffffc7
ffffffd9
ffffffc4
ffffffd4
ffffffda
ffffffec
fffffffe
fffffffb
fffffff4
fffffff9
00000005
0000000b
fffffff9
00000009
00000007
fffffff8
00000000
00000004
ffffffec
fffffff6
ffffffe6
ffffffee
ffffffe7
ffffffeb
ffffffe4
ffffffe4
ffffffe9
ffffffe3
fffffff4
fffffffe
fffffff3
fffffff4
ffffffe2
00000004
00000007
fffffff4
fffffffa
00000000
000004e8
00000000
00000000
00000000
00000000
00000000
00000000
00000000
00000000
00000000
00000000
00000000
00000000
00000000
00000000
7fffffff
00000000
00000000
00000000
00000000
00000000
00000000
00000000
00000000
00000000
00000000
00000000
00000000
00000000
00000000
00000000
00000000
00000000
00000000
00000000
00000000
00000000
00000000
00000000
00000000
00000000
00000000
00000000
00000000
00000000
00000000
00000000
00000000
00000000
00000000
00000000
00000000
00000000
00000000
00000000
00000000
00000000
00000000
00000000
00000000
00000000
00000000
00000000
00000000
00000000
00000000
00000000
00000000
00000000
00000000
00000000
00000000
00000000
00000000
00000000
00000000
00000000
00000000
00000000
00000000
00000000
00000000
00000000
00000000
00000000
00000000
00000000
00000000
00000000
00000000
00000000
00000000
00000000
00000000
00000000
00000000
00000000
00000000
00000000
00000000
00000000
00000000
00000000
00000000
00000000
00000000
00000000
00000000
00000000
00000000
00000000
00000000
00000000
00000000
00000000
00000000
00000000
00000000
00000000
00000000
00000000
00000000
00000000
00000000
00000000
00000000
00000000
00000000
00000000
00000000
00000000
00000000
00000000
00000000
00000000
00000000
00000000
00000000
00000000
00000000
00000000
00000000
00000000
00000000
00000000
00000000
00000000
00000000
00000000
00000000
00000000
00000000
00000000
00000000
00000000
00000000
00000000
00000000
00000000
00000000
00000000
00000000
00000000
00000000
00000000
00000000
00000000
00000000
00000000
00000000
00000000
00000000
00000000
00000000
00000000
00000000
00000000
00000000
00000000
00000000
00000000
00000000
00000000
00000000
00000000
00000000
00000000
00000000
00000000
00000000
00000000
00000000
00000000
00000000
00000000
00000000
00000000
00000000
00000000
00000000
00000000
00000000
00000000
00000000
00000000
00000000
00000000
00000000
00000000
00000000
00000000
00000000
00000000
00000000
00000000
00000000
00000000
00000000
00000000
00000000
00000000
00000000
00000000
00000000
00000000
00000000
00000000
00000000
00000000
00000000
00000000
00000000
00000000
00000000
00000000
00000000
00000000
00000000
00000000
00000000
