ffffffff
fffffff3
fffffff7
fffffffc
fffffff4
fffffff6
fffffffc
00000006
00000002
fffffff6
fffffff4
00000008
00000008
00000003
fffffffe
fffffffc
0000000b
00000002
fffffff3
00000005
fffffff5
fffffff6
00000001
fffffff5
00000005
fffffff4
00000001
fffffff8
00000009
00000000
0000000b
00000003
00000004
0000000a
00000003
fffffffa
00000014
0000000c
00000003
fffffff0
fffffffd
fffffff2
ffffffeb
ffffffdd
00000013
00000016
fffffff9
fffffffb
fffffff4
0000000a
00000005
00000004
fffffff4
fffffffc
fffffffb
00000007
00000006
00000001
fffffff5
00000003
fffffffb
00000011
00000008
00000003
00000013
00000021
0000000e
fffffff3
fffffff2
ffffffdd
ffffffe3
ffffffd3
ffffffdf
0000000b
ffffffff
ffffffd5
ffffffdd
ffffffe8
ffffffdc
ffffffe9
fffffffe
00000003
0000000c
00000003
fffffff8
fffffffb
ffffffed
fffffffe
00000013
fffffff6
0000000f
00000004
0000000a
00000023
fffffffa
fffffff7
ffffffeb
ffffffd5
ffffffdc
ffffffde
ffffffd7
ffffffcf
fffffffa
fffffff0
ffffffec
0000001b
00000023
00000006
00000004
0000000e
00000005
00000006
0000000b
fffffff4
ffffffee
fffffff6
ffffffee
00000003
00000009
ffffffef
fffffff8
ffffffff
ffffffff
fffffff3
fffffff6
ffffffdc
ffffffea
fffffffb
fffffffe
ffffffff
00000008
ffffffff
00000003
00000008
0000001f
0000001c
00000033
00000037
fffffffe
ffffffe9
fffffff7
00000006
fffffff9
ffffffe4
fffffff9
00000003
ffffffe9
00000001
00000007
0000000b
00000014
00000004
0000000e
00000005
ffffffff
ffffffed
0000000e
ffffffee
fffffffb
fffffff0
00000002
00000015
00000022
00000019
0000001e
00000024
0000000b
ffffffea
fffffff5
0000000c
00000007
fffffff7
00000003
00000013
00000002
00000008
0000000d
00000014
00000012
00000008
0000001a
ffffffff
fffffffa
fffffffc
fffffff2
fffffff6
fffffff8
00000005
ffffffff
00000010
ffffffff
00000007
00000024
0000003b
00000018
ffffffff
00000005
00000015
00000015
0000001b
0000000c
00000017
00000016
0000000c
00000018
00000013
00000012
00000017
00000010
00000007
fffffff5
fffffff1
fffffff9
00000009
00000010
0000000a
00000024
00000015
00000024
00000013
00000003
00000015
0000001a
0000000a
ffffffe7
00000031
0000001d
fffffffa
00000019
00000005
0000000f
0000000d
0000001b
00000018
0000001b
00000013
0000001c
0000001c
0000000f
0000000f
00000007
0000000b
00000011
00000021
0000001b
00000010
0000001e
0000002d
0000000a
00000008
00000035
00000022
00000005
00000023
0000000a
fffffffc
00000005
00000019
0000001b
00000018
00000013
0000000a
00000013
00000016
0000001c
0000001d
00000025
00000009
00000014
00000011
0000000e
00000002
fffffffd
fffffff0
00000002
00000009
00000002
0000002a
0000001b
00000013
00000014
00000038
0000001b
0000000d
00000026
00000027
0000001d
00000005
00000016
00000013
0000001c
00000017
00000017
0000002b
0000001b
0000000f
ffffffff
fffffffb
fffffff7
fffffff5
fffffff9
fffffffb
ffffffef
fffffff6
fffffff0
00000023
00000025
0000000f
00000011
00000024
00000019
00000002
00000014
0000002c
0000000f
00000019
00000001
00000009
fffffffd
00000009
fffffff5
ffffffd6
ffffffe4
ffffffe1
fffffffc
ffffffeb
ffffffef
fffffff4
fffffff3
ffffffd4
fffffff1
ffffffea
ffffffe4
0000001c
0000002b
fffffffb
0000000d
00000023
00000039
fffffff5
ffffffff
00000000
00000006
0000000f
00000014
fffffff8
ffffffe8
ffffffce
ffffffbe
ffffffb3
ffffffbf
ffffffda
fffffff6
fffffff4
ffffffec
ffffffdb
ffffffe4
ffffffee
ffffffe0
ffffffe5
fffffff0
00000015
00000014
00000006
fffffffd
0000001a
00000032
ffffffd7
ffffffc7
ffffffe3
ffffffdc
ffffffdb
ffffffd4
ffffffe5
ffffffd9
ffffffc2
ffffffb5
ffffffd8
ffffffe9
ffffffeb
ffffffeb
fffffff9
ffffffed
ffffffe6
ffffffe4
fffffff1
ffffffd6
ffffffe6
fffffff4
fffffff6
00000014
00000008
fffffffe
ffffffed
00000018
ffffffd7
ffffffc0
ffffffb2
ffffffac
ffffffb0
ffffffb5
ffffffb8
ffffffcf
ffffffc3
ffffffd1
fffffff2
fffffff6
ffffffea
ffffffee
fffffff8
ffffffea
fffffff5
fffffff3
fffffff2
ffffffe7
ffffffe8
ffffffe6
00000007
0000003b
0000000a
fffffffb
fffffffe
ffffffea
ffffffe1
ffffffc6
ffffff9d
ffffffaf
ffffff9a
ffffffa4
ffffffc7
ffffffd9
ffffffef
00000002
0000000e
fffffffb
fffffff0
fffffff0
fffffff2
fffffff8
ffffffed
fffffff9
ffffffec
fffffff1
fffffffc
fffffffb
00000013
00000031
00000027
0000000e
ffffffeb
ffffffdd
ffffffe7
ffffffbc
ffffff9b
ffffffac
ffffffc2
ffffffca
fffffff4
fffffffd
00000002
0000001b
00000023
00000002
fffffffe
00000003
fffffff5
00000004
fffffffa
fffffff6
0000000c
0000000a
ffffffff
00000004
00000035
00000029
0000002a
00000005
fffffffa
fffffff7
ffffffed
ffffffb9
ffffffbf
ffffffdd
fffffff8
00000007
0000000c
fffffff7
00000016
0000001a
00000017
0000000c
0000000d
00000003
0000000d
0000000d
fffffff8
fffffff4
00000008
00000002
fffffff5
00000016
00000033
0000001b
00000021
00000005
fffffff0
ffffffdb
fffffff8
fffffff0
fffffff2
00000004
0000000c
00000013
0000000a
00000000
00000008
00000019
0000001f
00000017
00000005
ffffffff
00000012
ffffffff
fffffffb
fffffff8
00000004
00000001
00000004
00000018
00000029
00000024
0000001c
00000004
00000005
00000006
fffffffb
00000003
00000004
00000019
0000001b
00000011
00000012
0000000b
00000011
0000000b
00000017
0000000b
00000014
00000004
fffffffe
00000003
fffffffa
fffffffc
fffffff6
ffffffec
00000003
00000013
00000023
00000018
00000017
fffffffb
ffffffec
00000015
00000015
0000000b
00000019
00000017
00000020
00000027
00000025
00000005
00000010
00000018
00000012
00000013
0000001b
00000002
fffffffb
0000000c
0000000b
fffffff6
fffffff3
fffffff1
ffffffff
00000001
0000002d
ffffffff
fffffff3
ffffffea
fffffff7
00000011
00000008
0000000b
00000014
00000017
fffffffe
ffffffff
0000001d
00000018
00000004
0000000f
00000017
00000011
00000014
00000006
0000000b
fffffffb
00000014
0000000b
00000004
0000000b
00000003
00000020
00000015
00000009
00000009
ffffffee
fffffffd
00000002
fffffff9
00000012
0000002c
00000013
0000000d
0000000d
fffffffc
00000004
00000007
00000007
0000000b
00000013
fffffffb
00000007
fffffffa
00000004
fffffff8
00000012
00000008
ffffffff
fffffff4
00000012
00000010
fffffff3
0000000c
fffffff6
fffffff7
fffffff7
fffffffa
00000004
0000001a
0000001e
00000008
0000000d
00000011
00000014
0000000c
0000000c
0000000a
00000010
00000002
00000010
00000003
0000000a
00000012
ffffffff
fffffff6
fffffff6
fffffff0
00000005
fffffffe
ffffffe7
00000002
ffffffff
fffffff6
fffffffd
ffffffec
fffffff9
fffffff0
00000005
fffffffb
fffffffc
00000013
fffffffe
00000008
00000000
00000016
00000024
0000001c
0000000a
0000001e
00000020
0000001b
00000009
00000005
fffffff4
ffffffe6
00000029
0000001f
0000000e
fffffffe
fffffff4
00000002
ffffffe8
00000013
00000020
fffffff6
fffffff3
fffffffd
0000000f
00000005
fffffffd
0000000d
00000015
00000017
00000015
00000019
0000001f
00000011
0000000f
00000015
fffffffd
00000008
0000000b
ffffffef
fffffff5
0000000e
0000000c
0000000a
00000007
00000000
ffffffff
00000003
fffffff9
ffffffe7
ffffffeb
0000000f
0000002a
fffffffd
ffffffff
00000005
fffffffc
0000000b
0000000f
0000001b
fffffff9
fffffff8
00000006
0000002c
ffffffec
fffffff3
fffffff7
00000011
fffffffa
00000009
fffffffe
fffffffd
0000000a
fffffff7
0000000c
00000006
00000013
0000001b
00000029
00000040
0000002e
00000024
0000003f
00000019
0000001e
00000056
0000003a
00000047
00000056
00000042
00000011
0000001f
fffffff9
ffffffe4
ffffffe8
fffffffc
fffffff4
fffffffc
fffffffc
00000004
000004dd
00000000
00000000
00000000
00000000
00000000
00000000
00000000
00000000
00000000
00000000
00000000
00000000
00000000
00000000
7fffffff
00000000
00000000
00000000
00000000
00000000
00000000
00000000
00000000
00000000
00000000
00000000
00000000
00000000
00000000
00000000
00000000
00000000
00000000
00000000
00000000
00000000
00000000
00000000
00000000
00000000
00000000
00000000
00000000
00000000
00000000
00000000
00000000
00000000
00000000
00000000
00000000
00000000
00000000
00000000
00000000
00000000
00000000
00000000
00000000
00000000
00000000
00000000
00000000
00000000
00000000
00000000
00000000
00000000
00000000
00000000
00000000
00000000
00000000
00000000
00000000
00000000
00000000
00000000
00000000
00000000
00000000
00000000
00000000
00000000
00000000
00000000
00000000
00000000
00000000
00000000
00000000
00000000
00000000
00000000
00000000
00000000
00000000
00000000
00000000
00000000
00000000
00000000
00000000
00000000
00000000
00000000
00000000
00000000
00000000
00000000
00000000
00000000
00000000
00000000
00000000
00000000
00000000
00000000
00000000
00000000
00000000
00000000
00000000
00000000
00000000
00000000
00000000
00000000
00000000
00000000
00000000
00000000
00000000
00000000
00000000
00000000
00000000
00000000
00000000
00000000
00000000
00000000
00000000
00000000
00000000
00000000
00000000
00000000
00000000
00000000
00000000
00000000
00000000
00000000
00000000
00000000
00000000
00000000
00000000
00000000
00000000
00000000
00000000
00000000
00000000
00000000
00000000
00000000
00000000
00000000
00000000
00000000
00000000
00000000
00000000
00000000
00000000
00000000
00000000
00000000
00000000
00000000
00000000
00000000
00000000
00000000
00000000
00000000
00000000
00000000
00000000
00000000
00000000
00000000
00000000
00000000
00000000
00000000
00000000
00000000
00000000
00000000
00000000
00000000
00000000
00000000
00000000
00000000
00000000
00000000
00000000
00000000
00000000
00000000
00000000
00000000
00000000
00000000
00000000
00000000
00000000
00000000
00000000
00000000
00000000
00000000
00000000
00000000
00000000
00000000
00000000
00000000
00000000
00000000
00000000
00000000
00000000
00000000
00000000
