0000000b
00000001
00000006
00000004
00000005
fffffffe
0000000c
00000005
fffffffa
00000007
fffffffc
fffffffd
fffffff7
0000000d
00000005
00000000
fffffff8
fffffffa
fffffffa
fffffff4
fffffffd
00000003
00000006
fffffff4
00000003
fffffffb
fffffff9
fffffff4
fffffff6
00000005
00000002
00000003
fffffff8
ffffffef
fffffff3
ffffffec
00000005
fffffff8
00000004
ffffffdd
ffffffe4
fffffff4
00000008
ffffffe9
fffffff5
ffffffee
00000017
fffffffb
fffffffc
fffffff8
ffffffe4
fffffff1
0000000a
0000000b
00000001
00000002
fffffffa
fffffff8
00000002
ffffffe9
fffffff9
00000002
00000002
fffffff4
fffffff6
00000008
0000000c
00000020
0000000c
0000000f
00000037
0000000d
fffffffa
0000000c
0000000d
00000001
fffffffb
0000001d
00000011
fffffffd
00000008
fffffff4
00000001
fffffffd
fffffffe
fffffff4
ffffffec
fffffffe
00000001
00000002
00000015
00000016
fffffffa
00000005
00000006
00000014
00000013
00000005
00000013
00000011
00000014
fffffff6
fffffff9
00000003
ffffffee
00000008
00000018
0000000d
fffffffa
ffffffef
00000001
fffffffa
00000000
fffffff6
ffffffec
ffffffeb
00000014
0000000e
00000003
00000006
0000000a
0000000d
00000008
0000001c
0000000c
00000003
00000002
fffffff1
00000007
00000018
fffffffd
00000002
00000013
0000000b
0000000e
00000014
00000005
00000010
0000000e
0000000c
00000001
fffffff7
ffffffe1
fffffffa
0000000b
ffffffee
fffffffd
fffffff8
fffffffd
ffffffff
00000015
00000004
00000004
fffffff6
fffffffd
ffffffee
fffffffe
00000002
00000000
0000000d
00000006
0000000e
0000000b
00000009
00000010
0000000d
00000014
0000000e
00000007
fffffffb
fffffff6
ffffffdd
00000008
fffffff5
ffffffe6
fffffff5
fffffffb
0000000c
00000007
fffffffe
fffffff0
ffffffe6
fffffff5
ffffffee
fffffff0
ffffffee
fffffff8
fffffff5
ffffffee
fffffffc
fffffff8
00000026
00000014
00000001
fffffffd
0000000a
0000000a
fffffff9
00000007
ffffffe2
0000000d
ffffffff
fffffffa
fffffffc
00000013
0000000f
00000001
fffffff2
ffffffe8
fffffff8
ffffffe9
ffffffef
fffffffc
fffffffd
ffffffe7
fffffff7
fffffff4
fffffffc
00000014
00000005
00000012
00000014
00000012
fffffff9
ffffffe9
00000000
00000001
00000000
0000000b
fffffffa
fffffff6
fffffffd
fffffffc
fffffff5
ffffffeb
ffffffef
ffffffe1
ffffffff
00000003
00000001
ffffffef
ffffffed
fffffff4
ffffffee
fffffff1
00000017
00000001
0000000f
00000001
00000017
00000001
fffffff8
fffffffe
ffffffe8
fffffffd
00000001
ffffffee
00000008
00000001
00000001
fffffffb
fffffffc
ffffffde
ffffffed
ffffffe1
ffffffe8
ffffffe9
fffffffe
0000000c
fffffffd
fffffff6
fffffff8
0000000b
00000000
00000009
fffffff2
fffffff1
0000000b
ffffffe6
ffffffe1
fffffffa
ffffffee
ffffffe5
fffffffa
ffffffff
0000000d
0000000b
00000003
fffffff7
ffffffec
fffffff9
fffffff1
ffffffe3
ffffffc9
ffffffd2
fffffff2
fffffff1
ffffffe5
fffffff8
fffffff1
fffffffe
fffffff8
ffffffeb
fffffff5
fffffff8
ffffffff
ffffffdd
ffffffde
00000006
ffffffe4
ffffffe7
ffffffe9
fffffff4
00000007
00000019
fffffffd
0000000a
00000012
00000003
fffffff8
ffffffec
ffffffbb
ffffffc4
ffffffd7
ffffffea
ffffffd9
ffffffec
fffffffc
fffffffb
fffffffb
fffffff5
fffffff4
fffffff5
fffffff8
ffffffd1
ffffffeb
00000002
ffffffeb
ffffffde
ffffffeb
fffffffe
0000000b
0000000a
0000000e
0000000e
00000018
00000013
fffffffe
ffffffeb
ffffffdd
ffffffc2
ffffffd2
ffffffee
fffffffa
ffffffed
00000015
00000014
0000000b
fffffff5
0000000b
00000016
fffffffb
ffffffdc
ffffffe7
fffffff3
00000000
fffffff4
ffffffe4
fffffff6
00000002
00000005
0000000c
00000017
0000001f
00000014
00000012
0000000c
fffffffe
ffffffec
fffffff7
00000004
0000000d
00000011
0000001d
00000005
0000000d
00000004
00000008
fffffff3
fffffff2
ffffffe9
fffffffa
00000001
ffffffff
ffffffe8
fffffff2
00000008
00000017
00000022
00000014
00000018
0000001d
0000000d
00000014
0000001f
fffffffc
0000000d
0000000a
00000015
00000019
0000000e
0000000e
fffffffa
00000000
00000001
fffffffe
ffffffe8
0000001a
fffffffb
00000007
ffffffee
fffffff9
00000008
0000001d
0000000a
0000000a
00000025
0000001f
00000013
00000010
00000017
00000021
0000001f
0000001c
00000013
00000012
00000024
00000005
fffffffa
00000009
fffffff5
fffffffe
fffffff5
ffffffef
ffffffc9
0000001e
00000028
0000000f
fffffff5
ffffffec
00000009
0000000b
fffffffe
00000009
00000011
00000018
00000019
00000009
00000015
00000016
00000020
0000001b
00000014
0000000e
00000020
00000012
00000000
fffffff7
00000000
00000005
ffffffee
fffffff4
ffffffe7
00000035
0000001f
0000000b
00000002
00000001
0000000e
fffffffc
00000001
00000002
00000012
0000001b
00000009
00000002
00000013
00000013
00000025
0000001e
0000000a
00000017
00000009
00000005
fffffff9
fffffffd
fffffffc
fffffff3
ffffffec
fffffffd
fffffff7
00000013
00000000
fffffff8
fffffff6
fffffffd
fffffff7
00000002
fffffffa
00000001
0000000f
00000014
fffffffb
00000003
00000005
fffffffa
0000001d
0000002a
00000016
00000011
0000000e
fffffff7
fffffff7
fffffff4
00000001
fffffff9
fffffff1
ffffffff
00000017
0000000a
fffffff9
0000000b
00000001
ffffffec
ffffffed
00000001
fffffffe
00000011
00000018
00000008
00000005
fffffff1
fffffffb
ffffffff
00000005
00000016
00000015
00000004
00000014
fffffff9
fffffffc
0000000e
00000009
00000014
fffffffc
00000012
0000000a
00000011
00000012
00000006
fffffffa
00000002
00000024
0000001d
fffffff7
fffffff5
fffffff3
00000000
fffffff9
fffffff4
fffffffa
00000003
0000000a
0000000e
00000009
00000013
00000011
00000008
00000013
0000000a
0000000f
0000000a
00000016
0000000d
ffffffff
fffffffd
00000015
fffffff5
ffffffff
fffffffe
0000000c
00000009
fffffffe
fffffff1
ffffffe6
fffffff3
00000010
00000013
fffffff1
00000003
0000000b
00000012
00000017
00000007
0000000f
00000011
00000010
00000009
00000010
00000011
0000001f
00000038
0000000b
ffffffed
ffffffec
fffffffa
fffffff5
00000006
0000000e
0000000e
0000000f
ffffffe0
ffffffeb
ffffffe3
ffffffec
ffffffff
00000008
00000000
fffffff5
00000003
00000005
0000000e
fffffffe
0000000d
00000014
00000021
00000011
00000026
00000019
00000015
0000000c
fffffff3
fffffff1
fffffff8
fffffffe
fffffff7
00000012
00000008
fffffff2
ffffffe9
ffffffe4
fffffff1
00000004
fffffff2
ffffffea
fffffff7
fffffff4
fffffffc
fffffffd
00000002
00000008
00000013
0000002c
00000027
00000029
00000043
0000002e
00000022
fffffff6
00000014
fffffff6
fffffffd
fffffffc
fffffffe
00000009
ffffffee
ffffffe7
ffffffe3
ffffffe9
ffffffe8
fffffff4
ffffffef
ffffffee
fffffff3
ffffffea
00000002
00000013
fffffffe
00000014
ffffffff
00000018
0000000f
0000000c
00000013
00000026
0000002c
fffffff7
00000018
0000000a
00000005
00000004
fffffff3
00000006
00000012
00000001
00000009
0000000a
fffffff4
fffffffe
ffffffe9
fffffff8
fffffffc
fffffff3
00000004
fffffffc
00000007
fffffff9
ffffffff
fffffff3
fffffff4
fffffff8
00000002
fffffffb
00000003
ffffffcc
00000011
00000011
fffffff6
00000000
fffffff4
00000007
00000008
00000025
00000009
00000019
0000001b
00000025
ffffffea
ffffffe8
00000010
00000010
0000000e
00000000
fffffff9
ffffffe5
ffffffe1
ffffffdd
ffffffe0
ffffffee
00000001
ffffffe2
00000011
00000003
fffffffc
fffffff7
00000009
00000002
00000001
fffffffa
00000007
fffffff9
fffffff8
00000012
0000000e
fffffff0
fffffff8
0000000c
00000013
00000018
00000001
fffffffa
fffffff1
fffffffd
ffffffea
00000003
00000002
00000005
ffffffee
ffffffe9
ffffffeb
fffffff5
fffffffb
ffffffff
00000008
00000743
00000000
00000000
00000000
00000000
00000000
00000000
00000000
00000000
00000000
00000000
00000000
00000000
00000000
00000000
7fffffff
00000000
00000000
00000000
00000000
00000000
00000000
00000000
00000000
00000000
00000000
00000000
00000000
00000000
00000000
00000000
00000000
00000000
00000000
00000000
00000000
00000000
00000000
00000000
00000000
00000000
00000000
00000000
00000000
00000000
00000000
00000000
00000000
00000000
00000000
00000000
00000000
00000000
00000000
00000000
00000000
00000000
00000000
00000000
00000000
00000000
00000000
00000000
00000000
00000000
00000000
00000000
00000000
00000000
00000000
00000000
00000000
00000000
00000000
00000000
00000000
00000000
00000000
00000000
00000000
00000000
00000000
00000000
00000000
00000000
00000000
00000000
00000000
00000000
00000000
00000000
00000000
00000000
00000000
00000000
00000000
00000000
00000000
00000000
00000000
00000000
00000000
00000000
00000000
00000000
00000000
00000000
00000000
00000000
00000000
00000000
00000000
00000000
00000000
00000000
00000000
00000000
00000000
00000000
00000000
00000000
00000000
00000000
00000000
00000000
00000000
00000000
00000000
00000000
00000000
00000000
00000000
00000000
00000000
00000000
00000000
00000000
00000000
00000000
00000000
00000000
00000000
00000000
00000000
00000000
00000000
00000000
00000000
00000000
00000000
00000000
00000000
00000000
00000000
00000000
00000000
00000000
00000000
00000000
00000000
00000000
00000000
00000000
00000000
00000000
00000000
00000000
00000000
00000000
00000000
00000000
00000000
00000000
00000000
00000000
00000000
00000000
00000000
00000000
00000000
00000000
00000000
00000000
00000000
00000000
00000000
00000000
00000000
00000000
00000000
00000000
00000000
00000000
00000000
00000000
00000000
00000000
00000000
00000000
00000000
00000000
00000000
00000000
00000000
00000000
00000000
00000000
00000000
00000000
00000000
00000000
00000000
00000000
00000000
00000000
00000000
00000000
00000000
00000000
00000000
00000000
00000000
00000000
00000000
00000000
00000000
00000000
00000000
00000000
00000000
00000000
00000000
00000000
00000000
00000000
00000000
00000000
00000000
00000000
00000000
