fffffffa
fffffff7
fffffff7
ffffffff
00000001
00000009
00000005
00000005
fffffffa
fffffff8
00000006
00000009
00000017
00000007
ffffffea
00000000
fffffff9
00000005
fffffff9
00000008
fffffff7
fffffffe
00000004
fffffff8
00000008
fffffff9
fffffff5
00000005
0000000c
fffffffd
fffffffd
00000008
00000006
00000019
0000001f
00000023
00000011
0000000c
00000026
00000034
0000003c
00000026
fffffffe
00000027
0000000c
00000020
00000028
00000025
00000024
00000016
00000024
0000000b
00000003
00000000
0000000a
00000007
00000004
0000000b
ffffffff
0000000f
0000001a
00000015
0000002a
00000021
00000013
fffffff4
00000001
00000026
00000019
0000000f
0000001f
00000017
00000007
0000000b
00000011
00000014
0000001c
00000011
0000001f
00000028
0000000f
fffffff8
00000009
fffffff4
fffffff6
00000004
0000000a
00000014
0000001c
fffffffe
00000011
00000015
fffffff4
00000003
fffffffb
ffffffe9
fffffff4
fffffffc
ffffffde
fffffff1
ffffffe6
fffffff5
ffffffe5
fffffff6
fffffff4
00000006
00000005
00000001
0000000e
ffffffee
00000004
00000005
fffffff7
00000003
00000013
ffffffef
fffffff8
ffffffed
fffffffe
ffffffec
ffffffe2
fffffff1
ffffffee
ffffffe6
ffffffdb
fffffffc
ffffffe1
ffffffe6
ffffffd7
ffffffe5
ffffffdd
00000001
ffffffff
00000001
00000005
00000020
ffffffdf
ffffffcf
ffffffd6
0000000a
00000006
00000005
00000014
ffffffed
0000000d
fffffff7
ffffffee
ffffffe1
fffffff2
fffffff2
fffffff0
ffffffd0
fffffff3
fffffffa
00000006
fffffffd
fffffff4
ffffffea
ffffffe9
ffffffe0
ffffffef
ffffffff
00000008
00000010
00000017
ffffffee
fffffffa
00000001
0000000c
00000003
fffffffc
ffffffef
0000000d
00000005
ffffffea
ffffffd8
ffffffe1
ffffffdd
ffffffea
ffffffde
fffffffb
ffffffee
fffffff9
fffffff8
ffffffde
ffffffd0
ffffffc5
ffffffc7
ffffffd8
fffffff2
00000004
0000001d
0000001b
ffffffe8
fffffff3
0000000a
fffffffb
00000005
00000001
ffffffe4
00000002
ffffffe8
ffffffca
ffffffdc
ffffffe1
fffffff2
fffffff4
fffffffc
ffffffec
fffffffd
ffffffff
ffffffe3
ffffffd4
ffffffe7
ffffffde
ffffffdf
ffffffe2
fffffff4
fffffff7
0000000e
00000018
fffffff5
fffffffb
fffffff4
00000019
00000017
00000013
ffffffef
fffffff0
ffffffec
fffffff5
fffffff7
fffffff4
00000000
fffffffa
ffffffec
00000001
ffffffff
00000001
ffffffeb
ffffffe5
fffffff4
ffffffef
ffffffee
ffffffee
fffffffc
fffffffc
fffffff7
ffffffef
fffffff0
ffffffce
ffffffe7
0000000f
00000015
00000014
fffffff8
fffffff9
ffffffea
fffffffc
00000004
fffffffb
ffffffdf
ffffffe7
ffffffe0
fffffff0
0000000f
00000014
00000009
00000007
00000004
fffffffd
00000002
00000004
0000000f
fffffffe
fffffffb
00000010
ffffffcd
ffffffcd
fffffff5
00000014
00000010
fffffffa
ffffffdf
ffffffe4
ffffffe5
fffffff0
00000013
fffffffe
ffffffe4
ffffffe2
ffffffed
fffffffd
0000001f
00000023
00000021
00000007
00000016
00000010
fffffff4
0000000d
0000000e
00000003
fffffffb
00000004
ffffffd2
ffffffe6
fffffff5
00000006
00000026
ffffffdc
ffffffef
ffffffc5
ffffffe1
ffffffec
0000000b
ffffffe8
fffffff8
fffffff9
fffffffd
00000015
00000025
0000001c
00000017
00000006
fffffff2
00000007
00000005
00000007
00000010
00000015
fffffffc
ffffffe1
ffffffc9
ffffffc8
00000001
00000009
00000009
fffffff0
fffffff2
ffffffc1
fffffff3
ffffffee
fffffff1
ffffffed
fffffffe
00000013
00000020
00000039
0000002c
00000010
00000011
fffffffe
ffffffe9
fffffffb
00000006
00000006
0000000e
0000001c
fffffff1
00000002
ffffffdc
ffffffcf
fffffffa
00000009
00000005
0000000f
ffffffff
ffffffd2
0000000d
fffffff6
fffffffb
00000001
00000010
00000017
00000030
0000002f
00000010
00000005
0000000d
00000002
fffffff9
00000009
00000008
0000000d
00000015
00000011
0000000d
00000005
ffffffdd
ffffffca
ffffffe8
0000000e
00000003
00000007
00000004
ffffffd6
00000000
fffffffa
00000008
00000017
00000013
0000001a
00000028
00000022
00000016
0000000e
00000005
fffffff4
00000001
fffffffb
0000000a
fffffffe
00000006
00000004
00000013
00000017
ffffffe3
ffffffd1
ffffffeb
fffffffd
fffffff7
0000001d
fffffffa
ffffffd8
ffffffe4
ffffffff
0000001a
00000009
00000018
0000000d
0000001d
00000025
0000001e
00000016
fffffffd
ffffffed
fffffff0
00000005
fffffff7
00000003
00000006
00000005
00000012
00000011
fffffffe
ffffffe4
ffffffd6
fffffff8
00000003
00000001
ffffffef
ffffffd6
fffffff7
fffffff9
fffffffd
00000009
00000010
00000009
0000001f
00000011
00000019
0000001e
fffffffe
fffffff9
fffffffe
ffffffff
00000008
fffffffb
fffffffd
fffffffc
fffffff9
00000007
fffffff7
ffffffcd
ffffffe3
fffffff8
00000000
fffffff9
ffffffcd
ffffffe8
fffffffe
fffffff6
fffffff5
00000007
00000003
0000001c
00000017
0000001d
0000000f
0000002a
00000005
00000017
fffffffe
00000017
00000006
0000000c
00000000
00000004
fffffffc
0000001c
00000001
ffffffec
0000000c
ffffffef
00000003
fffffff1
ffffffcc
0000000d
ffffffee
ffffffd9
fffffff3
00000000
0000000f
fffffffb
0000000d
0000001d
00000011
0000000e
00000017
00000006
00000006
0000000b
fffffffd
fffffff8
fffffff9
ffffffda
ffffffed
00000006
00000009
fffffffa
00000004
00000003
00000018
00000003
00000002
fffffff3
fffffff8
fffffff6
fffffffa
00000004
00000005
00000010
00000017
00000021
00000019
00000005
00000008
fffffffe
ffffffef
ffffffff
fffffff4
fffffff4
ffffffd7
ffffffd5
ffffffdf
fffffff3
fffffff3
fffffff5
fffffffc
00000008
0000000c
00000007
fffffff7
00000001
00000005
fffffff2
00000001
fffffffa
00000006
00000009
00000022
0000002a
00000012
00000009
00000008
00000008
ffffffeb
fffffff9
ffffffef
ffffffe3
ffffffdd
ffffffcf
ffffffc7
ffffffe5
ffffffee
00000001
00000005
0000000b
00000008
fffffff0
fffffff3
ffffffef
0000000b
fffffff4
ffffffe7
fffffff9
fffffff2
fffffff8
fffffffb
00000010
00000005
00000004
0000000b
fffffff8
00000000
fffffff7
fffffff9
fffffff3
ffffffe0
ffffffda
ffffffd7
00000006
fffffffa
0000000e
fffffffc
00000019
00000003
fffffff0
ffffffe4
ffffffde
00000009
fffffffb
ffffffe2
fffffff3
fffffffc
fffffff8
fffffff5
ffffffff
00000005
fffffffe
00000010
00000014
fffffffc
fffffff3
00000000
ffffffe9
ffffffef
fffffff7
ffffffe7
fffffffa
00000000
0000002a
00000007
0000000a
00000008
00000001
ffffffe7
ffffffd8
fffffffd
fffffff8
ffffffea
fffffff3
00000012
00000002
0000000c
00000010
00000002
00000013
00000004
fffffffc
00000001
ffffffe5
fffffff5
fffffffe
ffffffeb
ffffffd3
fffffff0
ffffffeb
fffffff1
0000000d
0000000c
fffffff9
fffffff6
0000000c
fffffffe
ffffffe4
ffffffe1
ffffffd3
ffffffcf
ffffffd8
fffffff3
fffffff1
ffffffef
ffffffea
fffffff3
00000002
ffffffe8
ffffffe3
ffffffec
ffffffd9
fffffff5
ffffffee
fffffffb
fffffff0
ffffffed
fffffff0
00000011
00000019
00000000
00000006
fffffff9
fffffffb
0000000d
ffffffe6
ffffffe4
ffffffe3
ffffffd0
ffffffc8
ffffffcf
ffffffce
ffffffd4
ffffffd3
ffffffc0
ffffffc1
ffffffc9
ffffffbe
ffffffb7
ffffffb5
ffffffbe
ffffffd2
fffffff5
fffffff1
00000007
00000008
00000001
0000000e
fffffffe
0000000a
00000008
00000006
fffffff5
ffffffe6
fffffff4
ffffffe2
ffffffcb
ffffffd7
ffffffde
ffffffe3
ffffffed
ffffffbf
ffffffb1
ffffff9d
ffffffc8
ffffffca
ffffffc1
ffffffb6
ffffffb6
ffffffb7
ffffffef
fffffffd
fffffffb
00000001
fffffff7
00000007
fffffffb
fffffffc
0000000c
fffffff6
00000000
00000004
0000000a
ffffffeb
fffffff7
fffffffa
fffffff2
ffffffed
fffffff4
ffffffe6
ffffffeb
ffffffbe
ffffffe2
ffffffe8
ffffffed
ffffffde
ffffffea
fffffff3
00000013
00000013
00000008
fffffff5
fffffff8
ffffffff
00000003
00001b38
00000000
00000000
00000000
00000000
00000000
00000000
00000000
00000000
00000000
00000000
00000000
00000000
00000000
00000000
00000000
00000000
00000000
00000000
00000000
00000000
00000000
00000000
00000000
00000000
00000000
00000000
00000000
00000000
00000000
00000000
00000000
00000000
00000000
00000000
00000000
00000000
00000000
00000000
00000000
00000000
00000000
00000000
00000000
00000000
00000000
00000000
00000000
00000000
00000000
00000000
00000000
00000000
00000000
00000000
00000000
00000000
00000000
00000000
00000000
00000000
00000000
00000000
00000000
00000000
00000000
00000000
00000000
00000000
00000000
00000000
00000000
00000000
00000000
00000000
00000000
00000000
00000000
00000000
00000000
00000000
00000000
00000000
00000000
00000000
00000000
00000000
00000000
00000000
00000000
00000000
00000000
00000000
00000000
00000000
00000000
00000000
00000000
00000000
00000000
00000000
00000000
00000000
00000000
00000000
00000000
00000000
00000000
00000000
00000000
00000000
00000000
00000000
00000000
00000000
00000000
00000000
00000000
00000000
00000000
00000000
00000000
00000000
00000000
00000000
00000000
00000000
00000000
00000000
00000000
00000000
00000000
00000000
00000000
00000000
00000000
00000000
00000000
00000000
00000000
00000000
00000000
00000000
00000000
00000000
00000000
00000000
00000000
00000000
00000000
00000000
00000000
00000000
00000000
00000000
00000000
00000000
00000000
00000000
00000000
00000000
00000000
00000000
00000000
00000000
00000000
00000000
00000000
00000000
00000000
00000000
00000000
00000000
00000000
00000000
00000000
00000000
00000000
00000000
00000000
00000000
00000000
00000000
00000000
00000000
00000000
00000000
00000000
00000000
00000000
00000000
00000000
00000000
00000000
00000000
00000000
00000000
00000000
00000000
00000000
00000000
00000000
00000000
00000000
00000000
00000000
00000000
00000000
00000000
00000000
00000000
00000000
00000000
00000000
00000000
00000000
00000000
00000000
00000000
00000000
00000000
00000000
00000000
00000000
00000000
00000000
00000000
00000000
00000000
00000000
00000000
00000000
00000000
00000000
00000000
00000000
00000000
00000000
00000000
00000000