00000005
fffffffe
fffffff6
00000006
fffffff7
fffffffa
fffffffa
00000006
00000004
00000000
00000009
fffffffd
fffffff9
00000015
0000000e
0000000b
fffffffe
00000001
0000000c
0000000a
00000003
ffffffff
fffffffd
fffffff5
00000003
00000004
fffffffb
00000005
00000003
0000000c
00000002
fffffffc
00000001
fffffff8
fffffffa
fffffff9
fffffffa
00000007
00000000
00000008
0000000f
00000020
00000009
0000001e
0000002b
00000015
fffffff0
ffffffd9
ffffffe6
ffffffec
00000002
fffffff7
00000007
fffffffe
00000009
00000000
fffffffd
00000005
00000009
00000014
0000000d
00000005
fffffff9
00000002
0000000f
00000010
00000008
00000009
00000034
00000031
00000020
0000000b
0000000d
fffffffc
00000003
fffffff2
ffffffef
fffffff1
ffffffe6
ffffffed
fffffff8
0000000d
00000009
00000007
fffffff7
00000001
00000006
00000007
fffffff0
fffffff9
fffffff2
fffffffb
0000001d
00000015
0000001e
00000020
00000030
00000037
00000038
0000002e
00000028
00000027
00000007
00000005
fffffff6
ffffffdc
ffffffdf
ffffffd9
fffffff3
00000004
00000002
00000009
00000009
fffffff6
00000023
0000000a
fffffff4
ffffffeb
00000015
00000014
00000021
0000001d
00000011
0000002d
0000001e
0000002f
00000028
00000039
00000021
00000015
00000017
00000009
fffffff4
ffffffec
ffffffdb
ffffffe0
ffffffe6
fffffff6
ffffffec
fffffff8
0000000c
0000000a
00000029
00000013
fffffffe
fffffff0
00000008
fffffffd
fffffffa
00000010
00000020
00000008
00000004
00000020
00000018
00000020
0000001e
00000018
00000012
00000001
0000000a
0000000b
00000015
fffffff3
ffffffe1
ffffffef
ffffffec
ffffffeb
00000002
00000018
fffffff7
fffffffc
fffffff3
fffffffc
fffffff9
ffffffec
fffffffd
fffffff8
00000011
0000000d
00000002
00000017
0000002b
0000001c
00000025
00000020
00000027
00000016
00000016
00000017
00000011
fffffffb
ffffffe4
ffffffcc
ffffffed
ffffffe6
fffffff3
00000015
00000007
ffffffee
00000011
00000001
fffffff9
ffffffee
fffffff9
fffffff1
ffffffed
fffffffc
fffffffb
fffffff8
0000001b
00000019
00000034
0000001e
0000001e
0000001c
00000014
00000015
00000014
ffffffff
ffffffe0
ffffffe7
ffffffe9
ffffffee
00000018
00000009
ffffffe7
ffffffff
0000000e
ffffffec
fffffff7
fffffff1
fffffff9
ffffffe1
ffffffe8
ffffffd6
ffffffd3
ffffffea
0000000b
0000001c
0000002f
00000036
0000002c
00000022
0000002d
00000019
00000023
00000011
fffffff4
ffffffe3
fffffff8
00000002
00000001
0000000e
fffffffe
0000000b
fffffffc
ffffffec
ffffffe6
ffffffe3
ffffffe6
ffffffe2
fffffff0
ffffffd0
ffffffdb
ffffffe7
fffffffd
00000010
00000029
0000001f
00000028
00000020
00000022
00000008
0000001e
0000001b
fffffffc
00000009
fffffffc
00000018
fffffff4
00000000
00000008
00000012
ffffffdf
ffffffea
fffffff5
ffffffd1
ffffffe8
ffffffe5
ffffffeb
ffffffee
ffffffd2
ffffffcd
fffffffc
00000002
0000001a
00000013
00000009
00000011
00000019
00000022
00000026
0000001e
0000000e
00000009
00000010
0000000f
fffffff7
0000000e
fffffffd
fffffff0
ffffffe8
ffffffd3
ffffffe1
ffffffde
fffffff5
ffffffe5
fffffff7
fffffff9
ffffffea
ffffffd6
ffffffde
fffffffe
ffffffdd
fffffffa
00000007
00000012
00000028
0000001a
00000014
00000010
fffffff3
fffffff8
00000012
00000005
00000001
ffffffec
ffffffd9
ffffffdb
ffffffe9
ffffffd9
ffffffe9
fffffff8
fffffff4
fffffffa
00000010
fffffffb
ffffffe8
ffffffe0
ffffffea
ffffffe0
ffffffd7
fffffff7
00000005
00000018
00000021
0000000e
fffffff7
fffffffa
ffffffe8
ffffffdf
fffffffe
fffffff7
00000004
fffffff2
ffffffe4
00000007
00000002
fffffffc
fffffff5
00000007
00000007
00000001
00000004
0000000f
fffffff0
fffffff7
fffffffa
ffffffe8
ffffffe6
fffffffe
fffffff8
00000011
fffffff5
fffffff3
ffffffee
ffffffe3
ffffffe6
ffffffcc
ffffffee
00000008
fffffff5
fffffff9
fffffffb
00000013
0000000f
00000009
00000013
00000012
00000000
0000000a
fffffff8
fffffffa
fffffff9
fffffff9
fffffff5
fffffffb
fffffff5
fffffff5
fffffffe
fffffffd
fffffff4
00000008
ffffffed
fffffff2
fffffffc
ffffffd2
0000000e
00000009
fffffff4
ffffffee
ffffffef
00000005
0000001a
00000015
00000014
00000005
fffffffd
fffffff8
fffffff2
fffffffc
ffffffea
ffffffec
ffffffed
00000005
00000007
ffffffe6
fffffff2
ffffffec
ffffffe1
fffffff9
ffffffe9
ffffffff
00000000
ffffffdf
00000013
00000017
fffffffe
00000002
0000000e
00000016
00000010
0000001c
00000000
fffffff3
fffffff9
00000000
00000008
fffffff1
fffffff3
fffffffd
fffffff5
ffffffef
00000000
00000001
ffffffeb
ffffffe6
ffffffe4
ffffffe1
fffffff2
ffffffe9
fffffffb
fffffffc
00000012
0000000a
00000001
00000005
fffffff3
00000027
00000017
00000004
00000003
ffffffed
ffffffe4
ffffffe4
fffffffa
ffffffee
fffffff5
ffffffee
fffffffb
fffffffd
00000007
fffffff1
ffffffea
ffffffe3
ffffffd7
ffffffe9
ffffffdc
ffffffd7
fffffff2
00000008
00000023
00000020
00000016
0000000b
fffffff2
ffffffff
00000006
00000006
ffffffff
fffffff2
00000000
fffffffc
fffffffc
00000000
ffffffe9
fffffff3
ffffffef
fffffffa
00000008
fffffffe
fffffffc
fffffffc
fffffff6
ffffffe7
00000002
fffffff4
fffffff6
0000001d
0000001d
0000001c
00000003
0000001f
fffffff7
ffffffee
00000003
00000016
0000000f
00000009
0000000d
00000003
00000013
0000000b
00000011
00000020
0000000b
00000006
fffffffc
0000000c
fffffffd
fffffff8
00000003
ffffffe8
fffffff8
fffffff6
00000007
00000024
00000017
0000000f
00000007
0000000b
0000000d
0000000d
00000020
0000001f
0000001a
00000018
00000013
00000015
0000000a
0000001c
00000015
00000017
0000000d
00000008
0000000a
0000000a
ffffffff
fffffffa
00000001
fffffff9
00000005
00000010
00000013
00000014
00000022
0000000b
0000000d
00000024
00000047
0000002d
00000015
0000001e
00000019
0000001b
00000001
00000005
0000000f
00000005
0000000b
00000015
0000000d
00000004
00000008
0000000d
ffffffff
00000009
00000007
0000000f
0000001c
0000002b
00000019
00000025
0000001e
00000005
00000009
00000012
00000048
0000001d
0000000f
0000001a
00000019
00000009
00000010
00000017
0000000e
00000009
fffffffe
00000011
0000000b
0000000e
00000011
fffffffe
0000000b
fffffffc
fffffffa
00000000
00000023
0000001d
0000001f
00000024
0000001a
00000003
ffffffff
fffffff5
00000023
00000018
fffffffc
fffffff9
00000011
00000002
00000000
00000013
00000017
00000015
0000001b
0000000f
0000000c
00000000
fffffff6
0000000c
00000004
fffffffc
fffffff3
fffffffb
00000020
00000010
0000001a
0000001a
00000003
00000003
fffffffe
00000007
fffffff1
ffffffff
00000006
ffffffe8
00000000
fffffffd
ffffffee
00000002
fffffff5
00000008
00000013
fffffffb
00000007
ffffffff
fffffffe
00000022
00000002
ffffffe5
ffffffeb
0000000c
00000014
00000004
0000002e
0000001f
00000002
00000002
00000002
fffffffa
fffffffc
fffffff7
fffffffa
00000009
fffffffc
fffffffd
00000010
0000000c
fffffff2
ffffffff
00000015
fffffffd
ffffffff
ffffffff
00000003
fffffff7
fffffff6
0000000d
00000001
00000011
00000016
ffffffff
00000008
0000000a
00000010
fffffff7
fffffff4
0000000b
00000005
0000000c
fffffff8
fffffff4
fffffff2
00000000
00000006
00000013
0000002d
00000023
00000024
00000023
0000002f
00000009
00000017
0000000b
00000001
00000013
00000003
ffffffeb
fffffff3
00000006
fffffffd
fffffff3
fffffff6
0000000b
00000002
00000001
00000001
0000000c
0000000d
fffffff9
00000009
00000003
0000000c
00000001
00000009
00000010
00000013
00000020
00000017
0000000a
fffffff6
ffffffe6
fffffffd
00000007
0000000a
fffffffa
fffffff1
fffffff8
00000004
fffffff7
fffffff9
0000000a
00000216
00000000
00000000
00000000
00000000
00000000
00000000
00000000
00000000
00000000
00000000
00000000
00000000
00000000
00000000
00000000
00000000
00000000
00000000
00000000
00000000
00000000
00000000
00000000
00000000
00000000
00000000
00000000
00000000
00000000
00000000
00000000
00000000
00000000
00000000
00000000
00000000
00000000
00000000
00000000
00000000
00000000
00000000
00000000
00000000
00000000
00000000
00000000
00000000
00000000
00000000
00000000
00000000
00000000
00000000
00000000
00000000
00000000
00000000
00000000
00000000
00000000
00000000
00000000
00000000
00000000
00000000
00000000
00000000
00000000
00000000
00000000
00000000
00000000
00000000
00000000
00000000
00000000
00000000
00000000
00000000
00000000
00000000
00000000
00000000
00000000
00000000
00000000
00000000
00000000
00000000
00000000
00000000
00000000
00000000
00000000
00000000
00000000
00000000
00000000
00000000
00000000
00000000
00000000
00000000
00000000
00000000
00000000
00000000
00000000
00000000
00000000
00000000
00000000
00000000
00000000
00000000
00000000
00000000
00000000
00000000
00000000
00000000
00000000
00000000
00000000
00000000
00000000
00000000
00000000
00000000
00000000
00000000
00000000
00000000
00000000
00000000
00000000
00000000
00000000
00000000
00000000
00000000
00000000
00000000
00000000
00000000
00000000
00000000
00000000
00000000
00000000
00000000
00000000
00000000
00000000
00000000
00000000
00000000
00000000
00000000
00000000
00000000
00000000
00000000
00000000
00000000
00000000
00000000
00000000
00000000
00000000
00000000
00000000
00000000
00000000
00000000
00000000
00000000
00000000
00000000
00000000
00000000
00000000
00000000
00000000
00000000
00000000
00000000
00000000
00000000
00000000
00000000
00000000
00000000
00000000
00000000
00000000
00000000
00000000
00000000
00000000
00000000
00000000
00000000
00000000
00000000
00000000
00000000
00000000
00000000
00000000
00000000
00000000
00000000
00000000
00000000
00000000
00000000
00000000
00000000
00000000
00000000
00000000
00000000
00000000
00000000
00000000
00000000
00000000
00000000
00000000
00000000
00000000
00000000
00000000
00000000
00000000
00000000
00000000
