0000000a
00000001
0000000c
fffffffa
fffffffc
fffffff8
00000002
fffffff9
00000008
fffffff9
fffffffc
00000009
00000005
00000001
fffffff1
00000000
fffffff4
0000000c
00000002
fffffff5
fffffff9
fffffffc
00000002
fffffffd
00000001
00000008
00000005
fffffff7
00000003
0000000c
00000004
00000003
0000000c
fffffffa
fffffff5
ffffffee
ffffffff
00000007
0000001d
00000026
00000009
0000001f
fffffff4
ffffffee
ffffffde
ffffffdd
ffffffe9
00000024
00000018
00000001
ffffffe3
ffffffec
00000005
fffffff5
fffffffc
00000009
00000008
00000006
00000001
fffffffe
00000003
00000008
0000000e
0000000c
0000001d
00000047
0000002f
00000044
00000013
ffffffff
00000008
00000001
ffffffe4
ffffffe1
fffffffe
0000001a
00000033
00000028
00000012
00000008
00000009
00000007
fffffff8
fffffffc
00000001
00000002
0000001a
00000002
fffffff4
00000001
0000001a
00000020
0000001b
00000012
00000009
00000016
fffffffb
ffffffe4
ffffffd1
ffffffdd
ffffffdb
ffffffd2
ffffffdd
0000001f
00000011
00000004
00000003
0000000a
0000000e
00000015
0000000a
fffffff7
fffffff7
00000006
0000000d
fffffffb
00000010
00000019
00000006
fffffff8
0000000a
ffffffeb
fffffff3
fffffff2
ffffffe6
ffffffcb
ffffffc7
ffffffdd
fffffffa
ffffffea
fffffff8
00000006
0000000c
00000011
00000008
00000010
ffffffe6
ffffffd3
ffffffe5
fffffff5
fffffff5
00000000
0000002e
fffffff5
0000000c
0000003d
00000027
00000008
fffffff6
0000000c
0000000c
ffffffe3
ffffffe2
ffffffc0
ffffffd7
ffffffe8
0000000c
0000000b
00000003
00000002
fffffffa
00000008
00000004
00000027
00000012
ffffffe0
fffffffc
fffffff9
fffffff4
00000004
fffffff9
00000005
0000001e
0000000f
0000001a
0000000a
00000014
00000013
0000000d
fffffff9
ffffffec
ffffffc8
ffffffd5
ffffffde
00000016
00000016
0000001c
00000007
00000004
fffffff4
0000000e
0000000d
fffffffb
0000000b
0000000f
00000012
00000002
00000014
00000007
00000014
00000020
0000000d
00000006
00000018
00000008
0000001a
00000006
00000001
fffffffa
ffffffd2
ffffffd6
fffffff6
00000028
00000036
0000001e
00000011
00000003
00000000
fffffffa
00000009
ffffffee
ffffffe7
00000017
00000017
00000008
00000003
0000000e
fffffffa
00000004
00000004
fffffff1
00000014
00000007
00000018
00000010
0000000e
fffffff4
ffffffd2
ffffffdb
ffffffff
00000029
00000031
00000009
0000000c
fffffff8
fffffff8
fffffff6
fffffffe
ffffffd8
ffffffc6
fffffffb
fffffff6
00000002
00000007
00000011
fffffff2
fffffff5
0000000b
fffffffc
00000012
0000001d
00000018
00000008
00000006
fffffff3
ffffffb7
ffffffb9
00000006
00000033
0000001b
00000001
fffffff0
ffffffe0
fffffff4
ffffffff
fffffff7
ffffffda
ffffffc4
fffffff1
00000002
00000000
0000001a
00000014
fffffff5
ffffffec
fffffff8
ffffffeb
00000001
00000007
00000010
ffffffee
ffffffdd
ffffffb3
ffffff9e
ffffffcd
00000027
00000026
00000013
ffffffef
ffffffe2
ffffffdf
ffffffed
ffffffe5
ffffffed
ffffffe3
ffffffef
00000000
0000000c
fffffff4
0000001c
00000017
00000009
ffffffe3
ffffffe1
ffffffec
ffffffdf
ffffffef
fffffff3
ffffffda
ffffffc6
ffffffb8
ffffffd4
0000000f
0000002c
0000002d
00000007
ffffffea
ffffffed
fffffff5
ffffffea
ffffffec
ffffffe6
fffffff4
ffffffe6
ffffffde
00000010
fffffff4
00000016
00000016
00000001
ffffffe2
ffffffee
ffffffd8
ffffffdd
ffffffdb
ffffffc5
ffffffcd
ffffffd3
ffffffdb
fffffff9
00000011
00000018
00000017
00000000
fffffff9
ffffffe7
00000002
00000005
00000007
00000004
00000021
0000000b
ffffffec
0000000b
00000005
0000000c
00000013
ffffffef
ffffffd6
ffffffe4
ffffffd1
ffffffbb
ffffffd3
ffffffd8
ffffffed
ffffffe9
fffffffc
00000008
00000018
0000000f
00000010
0000000a
fffffffe
0000000e
00000027
00000021
0000000e
0000000c
0000001f
fffffffd
00000004
fffffffc
fffffffa
00000003
00000021
00000004
0000000a
00000006
ffffffde
ffffffd9
fffffff5
fffffffe
fffffffc
00000009
0000001a
00000010
00000017
0000001b
00000027
00000018
00000004
00000026
00000023
0000002a
0000000e
00000027
0000001c
0000000c
ffffffff
00000006
00000009
ffffffff
00000023
00000005
0000000c
00000005
fffffff1
fffffff5
00000018
00000010
0000000f
0000002a
0000001d
00000017
00000018
00000017
00000019
00000005
00000004
0000000d
00000001
0000001b
00000016
0000001b
fffffffc
00000001
00000027
00000001
00000000
00000004
00000017
fffffff5
00000002
0000000f
0000000e
0000001a
0000001b
00000023
00000016
00000018
0000001a
00000021
00000015
0000000b
00000000
fffffffc
00000004
00000024
00000001
00000011
fffffffc
00000010
00000007
00000005
00000010
00000007
fffffff4
0000001a
00000015
ffffffe8
fffffff5
0000000d
00000007
00000015
0000000b
0000000f
00000009
0000000c
00000016
00000009
0000000b
00000004
ffffffea
fffffff7
00000004
00000012
fffffffc
00000001
fffffff8
00000018
00000013
00000018
00000015
ffffffef
00000008
0000001e
00000016
00000004
ffffffef
fffffffa
ffffffe6
fffffff1
ffffffeb
ffffffef
fffffff2
00000003
0000000e
00000008
fffffff9
ffffffe4
fffffff5
ffffffff
00000009
00000005
ffffffed
00000002
fffffff7
fffffffc
fffffffc
0000000c
0000000b
00000006
00000006
ffffffff
0000000b
0000001f
ffffffef
ffffffd8
fffffff3
0000000c
ffffffe3
00000002
ffffffed
00000001
fffffff4
fffffff8
fffffffe
fffffff7
00000004
0000000a
fffffffc
fffffff0
fffffff4
0000000c
ffffffef
fffffff2
00000007
00000012
ffffffe8
00000015
00000008
ffffffef
fffffffa
00000020
fffffff6
ffffffd6
fffffffe
00000003
fffffffa
fffffff5
ffffffee
fffffff2
ffffffff
ffffffe8
0000000d
fffffffe
0000000e
00000011
0000000a
fffffffa
00000001
fffffff8
fffffff1
fffffff2
0000001b
00000007
00000003
0000000d
0000000c
0000000c
00000002
00000019
fffffffe
fffffffb
00000012
ffffffff
00000006
00000003
0000000d
00000000
fffffff7
00000003
00000005
00000001
0000000b
fffffff8
ffffffe9
ffffffec
00000007
0000000e
fffffff4
fffffff8
0000000c
fffffff3
0000000b
fffffff5
00000012
00000008
00000006
fffffff8
0000000a
00000010
00000003
fffffffa
fffffff8
00000006
fffffff8
fffffffa
fffffffc
00000004
00000005
fffffff2
00000001
fffffff5
fffffff1
fffffff4
fffffff9
00000007
fffffffb
fffffffb
fffffffb
fffffff3
0000001b
fffffff9
00000007
00000004
00000005
fffffffe
0000000a
0000001b
00000015
0000001e
fffffff7
00000002
fffffff3
00000003
00000003
00000004
ffffffff
ffffffee
fffffffc
fffffff6
fffffffb
fffffff5
fffffff0
fffffff9
fffffff0
ffffffe0
ffffffeb
00000001
0000001c
fffffff8
fffffff8
0000000c
0000000d
00000014
00000022
00000016
00000017
00000010
0000000c
0000001b
0000000c
0000000e
00000007
0000000a
00000005
fffffff2
fffffffd
fffffffc
fffffff9
ffffffd0
ffffffe3
fffffffd
fffffff8
ffffffef
ffffffee
fffffffe
00000007
00000008
fffffff6
fffffffd
ffffffed
0000001d
0000000d
0000000e
fffffff6
0000001f
00000007
00000001
fffffffc
0000000a
00000006
00000007
fffffffe
fffffff8
ffffffea
fffffff1
fffffff0
ffffffda
ffffffcc
ffffffc6
ffffffea
fffffffe
ffffffec
fffffffc
00000013
fffffff5
00000004
00000007
fffffff6
ffffffff
fffffffb
fffffff7
ffffffe3
fffffff6
ffffffe9
ffffffed
ffffffde
fffffff1
ffffffd3
ffffffd2
ffffffce
ffffffd8
ffffffcd
ffffffc7
ffffffbe
ffffffb0
ffffffb9
ffffffde
fffffffd
fffffff0
ffffffe7
fffffffb
fffffff6
00000004
0000000a
fffffff7
fffffffe
0000000b
00000004
00000004
fffffff6
ffffffff
fffffffc
00000006
00000008
00000011
00000010
fffffffb
ffffffe3
00000004
fffffffc
00000001
ffffffe6
fffffff0
fffffff7
fffffff7
fffffffc
0000000b
0000000b
fffffff7
0000000b
fffffffe
000002d0
00000000
00000000
00000000
00000000
00000000
00000000
00000000
00000000
00000000
00000000
00000000
00000000
00000000
00000000
7fffffff
00000000
00000000
00000000
00000000
00000000
00000000
00000000
00000000
00000000
00000000
00000000
00000000
00000000
00000000
00000000
00000000
00000000
00000000
00000000
00000000
00000000
00000000
00000000
00000000
00000000
00000000
00000000
00000000
00000000
00000000
00000000
00000000
00000000
00000000
00000000
00000000
00000000
00000000
00000000
00000000
00000000
00000000
00000000
00000000
00000000
00000000
00000000
00000000
00000000
00000000
00000000
00000000
00000000
00000000
00000000
00000000
00000000
00000000
00000000
00000000
00000000
00000000
00000000
00000000
00000000
00000000
00000000
00000000
00000000
00000000
00000000
00000000
00000000
00000000
00000000
00000000
00000000
00000000
00000000
00000000
00000000
00000000
00000000
00000000
00000000
00000000
00000000
00000000
00000000
00000000
00000000
00000000
00000000
00000000
00000000
00000000
00000000
00000000
00000000
00000000
00000000
00000000
00000000
00000000
00000000
00000000
00000000
00000000
00000000
00000000
00000000
00000000
00000000
00000000
00000000
00000000
00000000
00000000
00000000
00000000
00000000
00000000
00000000
00000000
00000000
00000000
00000000
00000000
00000000
00000000
00000000
00000000
00000000
00000000
00000000
00000000
00000000
00000000
00000000
00000000
00000000
00000000
00000000
00000000
00000000
00000000
00000000
00000000
00000000
00000000
00000000
00000000
00000000
00000000
00000000
00000000
00000000
00000000
00000000
00000000
00000000
00000000
00000000
00000000
00000000
00000000
00000000
00000000
00000000
00000000
00000000
00000000
00000000
00000000
00000000
00000000
00000000
00000000
00000000
00000000
00000000
00000000
00000000
00000000
00000000
00000000
00000000
00000000
00000000
00000000
00000000
00000000
00000000
00000000
00000000
00000000
00000000
00000000
00000000
00000000
00000000
00000000
00000000
00000000
00000000
00000000
00000000
00000000
00000000
00000000
00000000
00000000
00000000
00000000
00000000
00000000
00000000
00000000
00000000
00000000
00000000
00000000
00000000
00000000
