fffffff6
fffffffa
fffffffb
fffffffa
fffffffb
00000002
fffffffb
00000007
fffffff5
fffffff8
fffffffa
00000006
00000007
00000003
00000001
fffffffa
00000003
fffffff6
fffffff7
00000000
fffffff5
00000009
fffffffb
fffffffe
0000000c
00000006
0000000b
00000001
fffffffa
fffffffa
00000003
fffffff9
fffffff4
00000003
00000000
00000006
00000012
fffffff6
fffffffc
00000015
0000000c
00000007
fffffffe
0000001d
00000026
0000001b
fffffff6
ffffffe3
ffffffe0
ffffffef
00000005
fffffffd
00000009
fffffff7
00000001
fffffff8
fffffff9
00000002
00000001
0000000c
00000008
fffffff8
00000001
00000014
0000000f
00000007
00000006
00000002
0000000c
0000001b
ffffffe5
00000007
0000000c
0000000b
fffffff2
fffffff1
fffffff7
0000000b
fffffffe
00000004
0000001a
00000001
00000005
fffffffc
00000008
fffffff6
00000000
0000000e
fffffff4
ffffffeb
fffffffd
fffffffd
fffffffd
0000000f
0000000d
00000010
00000008
0000001e
0000000f
0000000b
00000020
00000011
fffffffc
ffffffde
ffffffed
00000005
0000000a
fffffff9
fffffff5
00000003
ffffffeb
fffffffc
00000009
0000000c
0000000a
fffffff3
ffffffee
ffffffe8
ffffffdb
ffffffd9
ffffffd4
ffffffee
fffffffa
00000007
00000003
00000017
00000012
00000015
00000013
00000016
00000007
fffffffe
0000000b
ffffffe2
fffffff1
ffffffed
ffffffdd
ffffffd0
ffffffe5
ffffffe3
fffffff6
00000002
00000007
ffffffdc
ffffffd4
ffffffd5
ffffffe4
ffffffe0
ffffffe3
fffffff5
00000009
00000004
ffffffff
00000007
00000014
0000001b
00000022
00000016
0000000d
00000008
0000000a
00000006
fffffffc
ffffffc7
ffffffd9
ffffffe0
ffffffef
fffffff6
fffffff6
fffffff8
ffffffdf
ffffffe2
ffffffdd
ffffffec
ffffffdd
ffffffeb
fffffff0
ffffffe0
00000002
0000000e
fffffff4
fffffffe
fffffff3
00000003
0000000f
0000000b
0000000a
0000000c
00000007
00000014
00000002
ffffffe2
ffffffda
0000000a
fffffff8
fffffffb
00000000
ffffffe1
fffffff4
ffffffd4
ffffffec
ffffffef
fffffff5
fffffff1
ffffffe6
ffffffff
00000006
00000001
fffffff2
00000002
ffffffe2
0000000b
00000013
0000002c
00000022
0000000a
fffffffd
00000019
00000001
0000000f
00000007
00000004
ffffffef
00000005
00000016
fffffff5
00000019
ffffffea
ffffffcb
ffffffe2
fffffff4
ffffffff
00000006
00000006
00000007
fffffff8
fffffff1
fffffff9
fffffffc
00000005
00000006
00000010
0000000b
00000015
fffffffc
00000008
00000011
00000017
00000007
fffffff0
fffffff3
00000000
00000008
ffffffff
0000001f
ffffffe7
ffffffe5
ffffffdb
fffffff4
fffffff2
fffffffb
fffffffa
00000001
ffffffee
fffffffd
00000006
fffffffb
fffffffe
fffffffb
ffffffec
0000000b
00000028
00000020
00000003
00000009
0000001f
00000014
fffffff0
00000001
fffffffa
00000007
fffffffd
fffffffd
ffffffd4
ffffffe0
fffffff2
fffffffc
fffffff5
ffffffea
fffffff2
fffffffe
0000000e
00000002
00000009
0000000e
fffffff5
ffffffed
fffffff9
00000000
fffffffd
0000001b
0000000e
00000012
00000028
00000003
ffffffdd
ffffffe5
0000001e
fffffffe
00000003
0000000c
ffffffde
ffffffd8
fffffff2
00000002
00000000
ffffffff
ffffffff
fffffff1
fffffffa
00000002
fffffff3
0000000e
fffffffc
fffffff0
ffffffe0
ffffffe1
fffffff5
00000008
00000017
00000014
00000020
00000015
fffffffb
fffffffe
00000009
00000007
fffffffd
00000021
fffffff3
fffffff1
fffffffc
00000016
fffffffc
fffffff1
fffffffe
fffffffd
00000000
00000001
fffffffe
fffffffb
fffffff6
fffffff2
fffffff4
ffffffe8
0000000b
0000000d
00000019
00000031
00000046
0000003c
0000000a
00000002
00000013
0000000a
00000007
fffffffe
00000010
00000016
fffffffc
00000007
00000009
ffffffff
fffffffd
0000000e
fffffffc
00000000
fffffffc
fffffffb
00000003
00000002
ffffffec
00000000
00000013
0000000c
00000018
00000028
00000030
0000001d
0000001b
0000001c
0000001f
fffffff6
ffffffea
ffffffea
fffffff8
00000018
00000012
0000000c
00000012
00000006
00000003
00000012
00000018
00000015
00000006
fffffffc
00000001
fffffff1
00000002
00000006
0000000c
00000010
00000014
00000018
0000000b
0000001e
0000001d
00000033
00000015
fffffffd
fffffffd
ffffffef
ffffffee
00000008
00000014
ffffffff
00000005
00000008
00000012
00000026
0000000c
0000000c
fffffff2
ffffffff
ffffffe5
fffffff0
fffffffb
00000006
0000001a
00000004
0000001a
0000000f
00000011
fffffffb
00000017
00000012
0000001b
00000004
fffffff2
fffffff9
ffffffe0
ffffffef
00000009
00000016
00000010
00000024
00000030
00000023
0000001d
fffffffc
ffffffd5
ffffffd8
ffffffea
00000004
0000000c
fffffff4
fffffff2
fffffff4
00000000
00000009
00000000
fffffff6
00000002
0000001d
00000026
fffffff5
fffffffa
fffffffc
ffffffe8
fffffffd
fffffff8
0000001c
00000018
00000029
0000003e
00000030
00000006
ffffffce
ffffffd2
ffffffeb
fffffff4
fffffffc
fffffff7
fffffff4
00000000
fffffff9
fffffffd
00000012
fffffffb
ffffffff
00000015
0000000d
00000026
0000000b
ffffffec
fffffff0
ffffffe6
00000002
00000004
00000014
00000026
00000027
00000044
0000001a
ffffffd7
ffffffb8
ffffffd3
fffffff9
ffffffe8
fffffff0
ffffffe9
ffffffee
fffffff9
fffffff0
00000008
00000007
0000001d
0000001a
00000021
00000021
00000012
0000000d
00000011
fffffff7
ffffffda
ffffffec
fffffff9
0000000f
00000021
00000034
00000044
0000000d
ffffffc2
ffffffd6
fffffff8
ffffffee
ffffffec
ffffffec
00000000
fffffff0
fffffffb
fffffffc
00000014
00000028
00000022
fffffff1
00000006
00000021
0000000d
00000000
0000001b
00000004
00000000
00000007
00000011
00000016
00000012
00000028
00000017
00000015
ffffffd2
ffffffdc
fffffff9
ffffffe1
ffffffe5
ffffffe2
ffffffdd
fffffff0
ffffffee
ffffffe8
00000001
00000011
00000008
fffffffb
ffffffec
0000000d
fffffff4
fffffff7
00000013
00000004
0000000d
00000001
00000011
00000017
0000002b
0000000e
00000019
00000018
ffffffef
ffffffef
ffffffe6
ffffffe6
ffffffe4
ffffffe6
ffffffe9
ffffffe0
ffffffdd
fffffff8
00000001
0000000a
fffffffa
fffffffb
fffffff0
00000006
00000000
00000007
00000004
00000007
00000014
00000008
00000010
00000020
00000017
00000015
0000002d
00000028
00000009
0000000a
fffffffe
ffffffe1
ffffffd4
ffffffda
ffffffea
ffffffe6
ffffffe7
ffffffee
ffffffe3
ffffffef
ffffffcf
ffffffda
fffffff4
fffffffc
0000000f
00000000
00000002
ffffffee
ffffffed
ffffffe0
fffffff4
00000014
0000000a
00000024
00000018
0000001d
00000013
00000008
fffffffe
ffffffe3
ffffffed
ffffffeb
ffffffed
ffffffe5
ffffffda
ffffffce
ffffffc7
ffffffe1
ffffffd5
ffffffe2
ffffffe2
ffffffdd
fffffffa
00000003
fffffff4
00000007
ffffffce
ffffffc9
ffffffdb
fffffff0
00000009
0000000b
00000014
00000020
0000001e
0000001d
00000000
fffffff4
ffffffe9
ffffffdc
ffffffed
ffffffe2
ffffffd7
ffffffda
ffffffde
ffffffe7
fffffff6
ffffffef
00000002
fffffff7
fffffff9
0000000a
fffffffc
00000005
fffffffc
ffffffdc
ffffffe7
00000002
0000000b
0000000c
0000001e
00000017
00000020
fffffffa
fffffffc
ffffffed
ffffffe9
ffffffe3
ffffffd8
fffffff5
fffffff8
ffffffea
ffffffee
ffffffd5
fffffff0
ffffffe1
fffffff9
fffffff1
00000005
00000001
00000003
00000009
0000000b
00000016
0000000d
0000000c
00000017
0000001a
00000004
fffffffe
ffffffff
00000004
fffffff5
fffffff6
00000000
fffffff4
fffffff2
ffffffeb
00000002
fffffffb
00000006
fffffff1
fffffff6
0000000d
fffffff9
00000006
00000007
fffffffa
0000000c
fffffffa
ffffffff
ffffffea
ffffffef
00000014
00000006
00000003
00000007
00000011
00000008
00000000
ffffffe8
fffffff0
ffffffef
fffffff9
fffffff9
0000000d
fffffffd
fffffffe
ffffffec
ffffffef
ffffffe4
ffffffff
fffffff4
00000007
fffffff9
ffffdc04
00000000
00000000
00000000
00000000
00000000
00000000
00000000
00000000
00000000
00000000
00000000
00000000
00000000
00000000
7fffffff
00000000
00000000
00000000
00000000
00000000
00000000
00000000
00000000
00000000
00000000
00000000
00000000
00000000
00000000
00000000
00000000
00000000
00000000
00000000
00000000
00000000
00000000
00000000
00000000
00000000
00000000
00000000
00000000
00000000
00000000
00000000
00000000
00000000
00000000
00000000
00000000
00000000
00000000
00000000
00000000
00000000
00000000
00000000
00000000
00000000
00000000
00000000
00000000
00000000
00000000
00000000
00000000
00000000
00000000
00000000
00000000
00000000
00000000
00000000
00000000
00000000
00000000
00000000
00000000
00000000
00000000
00000000
00000000
00000000
00000000
00000000
00000000
00000000
00000000
00000000
00000000
00000000
00000000
00000000
00000000
00000000
00000000
00000000
00000000
00000000
00000000
00000000
00000000
00000000
00000000
00000000
00000000
00000000
00000000
00000000
00000000
00000000
00000000
00000000
00000000
00000000
00000000
00000000
00000000
00000000
00000000
00000000
00000000
00000000
00000000
00000000
00000000
00000000
00000000
00000000
00000000
00000000
00000000
00000000
00000000
00000000
00000000
00000000
00000000
00000000
00000000
00000000
00000000
00000000
00000000
00000000
00000000
00000000
00000000
00000000
00000000
00000000
00000000
00000000
00000000
00000000
00000000
00000000
00000000
00000000
00000000
00000000
00000000
00000000
00000000
00000000
00000000
00000000
00000000
00000000
00000000
00000000
00000000
00000000
00000000
00000000
00000000
00000000
00000000
00000000
00000000
00000000
00000000
00000000
00000000
00000000
00000000
00000000
00000000
00000000
00000000
00000000
00000000
00000000
00000000
00000000
00000000
00000000
00000000
00000000
00000000
00000000
00000000
00000000
00000000
00000000
00000000
00000000
00000000
00000000
00000000
00000000
00000000
00000000
00000000
00000000
00000000
00000000
00000000
00000000
00000000
00000000
00000000
00000000
00000000
00000000
00000000
00000000
00000000
00000000
00000000
00000000
00000000
00000000
00000000
00000000
00000000
00000000
00000000
