00000007
fffffffe
fffffffd
0000000c
fffffff7
fffffff7
0000000a
00000009
fffffff9
fffffff4
fffffff9
0000000c
fffffff5
fffffff9
00000001
00000005
fffffffa
00000003
ffffffff
00000000
00000007
00000003
00000008
00000001
00000000
fffffff8
00000002
fffffff8
0000000c
00000007
00000003
00000004
fffffff7
fffffff6
ffffffec
fffffff7
ffffffed
ffffffe7
fffffff3
ffffffe6
ffffffe5
fffffffc
fffffff4
ffffffe6
ffffffd7
ffffffec
ffffffd3
ffffffe1
fffffff3
ffffffe3
ffffffe8
ffffffff
00000006
fffffff9
00000001
fffffff6
0000000b
00000001
fffffffa
ffffffec
fffffff7
ffffffea
ffffffe6
fffffff1
ffffffd9
ffffffd3
ffffffda
ffffffbc
ffffffd2
ffffffe4
fffffff9
fffffffb
fffffffb
00000011
ffffffed
ffffffe9
ffffffe2
fffffff3
ffffffec
ffffffd0
ffffffe9
fffffff7
00000002
fffffffb
00000008
fffffffd
fffffffd
ffffffe1
ffffffdb
fffffff8
ffffffe4
ffffffe0
ffffffb8
ffffffbf
ffffffea
ffffffec
ffffffcc
ffffffd7
00000009
0000000a
00000026
0000002c
00000019
0000000a
00000000
ffffffe2
ffffffe1
ffffffe2
ffffffd9
0000001b
fffffffa
fffffffa
00000003
fffffff8
00000002
ffffffff
fffffff3
0000000c
00000007
00000003
00000005
00000004
00000000
ffffffef
00000003
fffffff6
00000001
00000000
0000001a
00000023
00000037
00000026
00000023
00000012
0000001b
fffffffb
ffffffe5
ffffffde
fffffff2
ffffffe5
00000008
00000001
fffffff7
00000006
fffffff3
0000000e
00000014
0000000b
fffffffe
00000000
00000018
00000003
00000004
ffffffe5
ffffffdb
ffffffe4
fffffff5
00000011
0000002b
00000036
0000001b
0000002b
0000002c
0000001a
fffffff6
ffffffd2
ffffffe2
ffffffec
00000008
00000015
00000008
00000000
ffffffe2
0000000f
00000013
0000000d
fffffffa
00000016
ffffffff
fffffffe
fffffffe
00000000
ffffffcd
ffffffad
ffffffcd
00000008
0000001d
00000025
0000001e
0000001f
0000000f
00000003
ffffffdd
ffffffd7
ffffffe0
00000002
fffffffe
00000012
fffffff9
fffffff7
fffffffe
00000022
0000000b
00000000
00000000
fffffff3
fffffffa
00000001
0000000e
00000008
ffffffd3
ffffffb8
ffffffd5
00000008
00000030
00000036
00000024
0000000c
0000000d
00000000
ffffffd8
ffffffb2
ffffffe4
00000004
00000005
fffffffd
00000006
00000017
0000000c
00000005
00000010
fffffff4
ffffffe9
fffffff7
fffffffb
0000000a
00000003
fffffffe
ffffffcc
ffffffb8
ffffffed
00000028
00000022
00000029
00000011
00000007
00000005
ffffffea
ffffffcc
ffffffba
ffffffd5
fffffff1
fffffff2
fffffff7
0000000c
00000014
fffffff8
fffffff7
ffffffe3
ffffffed
fffffffa
00000007
fffffff5
00000005
ffffffff
fffffff0
ffffffb7
ffffffb7
fffffffe
0000001d
00000026
00000021
00000016
0000000b
fffffffb
ffffffeb
ffffffd8
ffffffc5
ffffffd6
00000000
ffffffff
fffffff7
fffffff7
00000008
fffffff2
ffffffe1
ffffffd4
ffffffdc
fffffff3
fffffff2
fffffff8
fffffff6
00000000
ffffffe0
ffffffb5
ffffffce
00000011
00000038
00000027
0000000f
00000010
fffffffe
fffffffe
ffffffda
ffffffcf
ffffffd1
fffffff5
fffffff9
fffffffd
00000005
ffffffe5
ffffffe4
ffffffd8
ffffffde
fffffffa
ffffffee
fffffffd
ffffffef
fffffff9
fffffff6
ffffffff
ffffffdd
ffffffc2
ffffffe8
00000008
00000026
00000015
00000007
fffffffa
ffffffff
fffffffb
ffffffc8
ffffffcf
ffffffd8
00000005
00000008
00000009
fffffff7
ffffffe8
ffffffe1
ffffffd4
ffffffea
fffffff8
0000000e
fffffff4
fffffff2
0000000a
00000019
0000000d
fffffffb
ffffffe6
fffffff3
fffffffe
00000011
00000007
fffffffd
fffffff3
00000006
00000005
ffffffdf
00000005
fffffff3
00000010
00000000
fffffffe
fffffff9
fffffff5
ffffffe1
ffffffe1
fffffff7
00000015
fffffffe
00000010
00000000
00000012
00000019
00000005
ffffffef
ffffffed
ffffffe9
00000002
0000000c
00000005
ffffffe5
fffffffb
0000000e
0000000c
ffffffef
00000015
00000007
00000023
fffffffa
0000000b
00000001
fffffff9
ffffffee
00000001
00000018
00000013
0000000c
00000010
0000000d
00000005
00000003
00000004
fffffffa
fffffff1
fffffff7
00000002
00000014
fffffffa
00000002
00000015
00000014
00000006
00000004
fffffffd
fffffffb
0000001f
fffffffd
fffffff9
0000000b
00000035
fffffffe
00000008
00000009
fffffff9
0000000b
00000007
fffffffe
0000000d
fffffffa
00000001
00000005
fffffffd
fffffff5
00000005
0000000e
0000000d
0000000e
00000008
0000000c
00000007
00000000
ffffffdf
fffffff4
00000026
00000003
fffffff1
0000001e
00000023
0000000f
00000004
00000006
ffffffff
fffffff6
00000004
00000000
fffffffa
fffffffa
00000001
fffffff4
00000003
00000010
ffffffff
0000000f
0000000f
00000013
00000014
0000001c
fffffffa
00000006
00000001
0000000d
00000012
00000006
fffffffd
00000022
00000026
fffffffa
00000005
00000004
00000004
00000014
00000004
00000005
fffffff6
fffffff5
fffffffd
fffffff4
fffffffc
fffffffd
0000000d
0000000b
00000015
fffffffd
00000003
00000000
00000005
fffffff3
fffffff6
0000000f
00000019
00000000
fffffff8
00000028
00000012
00000016
00000003
fffffffd
fffffffa
00000004
00000010
00000008
00000000
fffffff4
fffffff9
ffffffed
fffffffe
0000000b
00000013
00000002
ffffffff
00000000
00000005
fffffff9
fffffff2
fffffffc
ffffffec
ffffffed
00000003
fffffff9
00000003
0000000e
fffffffd
00000014
fffffffe
0000000d
00000001
0000000b
00000014
00000011
00000000
fffffff2
ffffffeb
fffffff1
fffffffe
0000000e
00000004
fffffffb
fffffffe
00000001
00000005
0000000b
ffffffef
fffffff3
fffffff6
fffffffa
ffffffff
0000000d
00000007
0000001c
0000000e
00000029
00000013
00000001
0000000d
00000016
00000006
0000000c
fffffffc
00000004
fffffffd
fffffffb
fffffff4
00000000
00000003
fffffffe
0000000d
00000005
0000001a
0000001b
00000003
00000012
00000026
00000008
00000004
00000002
fffffffd
00000007
00000033
00000039
00000011
0000000b
00000007
0000000f
0000000c
00000006
fffffffa
fffffff9
fffffffb
fffffff3
fffffff3
00000007
ffffffff
00000001
0000000d
0000000d
0000001a
0000001c
00000014
00000017
0000002b
00000002
00000018
0000000a
0000000b
00000001
0000001a
0000001a
fffffff8
00000014
00000017
ffffffff
00000011
fffffff6
fffffffd
00000000
ffffffff
fffffff9
00000001
0000000e
fffffff2
00000000
00000007
0000000d
00000012
0000002a
0000001a
00000012
00000008
00000000
0000001a
00000003
fffffff6
0000000a
00000030
0000002c
fffffff0
00000005
00000015
00000012
fffffffc
00000003
fffffffa
fffffffd
fffffffb
0000000d
fffffffe
00000008
00000009
fffffff8
0000000c
fffffffe
00000003
00000012
fffffff0
ffffffe3
ffffffe4
fffffff7
0000000b
fffffff4
00000002
00000006
00000001
0000001a
fffffff9
ffffffeb
ffffffe9
fffffff6
00000009
fffffff8
00000006
fffffff5
fffffff1
00000006
00000003
00000008
00000007
fffffff7
00000008
ffffffe9
ffffffe0
ffffffe7
ffffffd4
ffffffe9
fffffff1
00000014
00000009
fffffff9
fffffff5
ffffffff
00000003
fffffffa
fffffff0
ffffffe4
ffffffd4
ffffffe2
fffffffc
fffffff5
fffffff0
fffffffa
ffffffff
fffffff2
00000001
fffffff0
fffffff1
fffffffb
ffffffee
ffffffcd
ffffffc6
ffffffcc
ffffffdc
fffffff5
fffffff0
00000002
0000000c
00000006
ffffffff
00000007
00000000
fffffffd
ffffffed
fffffff5
fffffffb
ffffffe0
ffffffcd
ffffffc5
ffffffe7
fffffff2
ffffffec
ffffffdd
ffffffc0
ffffffe5
ffffffd6
ffffffe0
ffffffdf
ffffffd8
ffffffd5
ffffffcb
ffffffd7
fffffff0
ffffffef
fffffffa
00000000
0000000a
0000000a
fffffff6
00000009
fffffffa
00000002
00000005
fffffffc
fffffff9
ffffffe8
fffffff2
fffffff1
fffffff3
fffffff1
fffffff5
ffffffd9
ffffffdd
ffffffdd
ffffffef
ffffffed
fffffff6
ffffffe4
ffffffeb
ffffffee
ffffffeb
0000000c
00000007
fffffffa
00000000
00000324
00000000
00000000
00000000
00000000
00000000
00000000
00000000
00000000
00000000
00000000
00000000
00000000
00000000
00000000
7fffffff
00000000
00000000
00000000
00000000
00000000
00000000
00000000
00000000
00000000
00000000
00000000
00000000
00000000
00000000
00000000
00000000
00000000
00000000
00000000
00000000
00000000
00000000
00000000
00000000
00000000
00000000
00000000
00000000
00000000
00000000
00000000
00000000
00000000
00000000
00000000
00000000
00000000
00000000
00000000
00000000
00000000
00000000
00000000
00000000
00000000
00000000
00000000
00000000
00000000
00000000
00000000
00000000
00000000
00000000
00000000
00000000
00000000
00000000
00000000
00000000
00000000
00000000
00000000
00000000
00000000
00000000
00000000
00000000
00000000
00000000
00000000
00000000
00000000
00000000
00000000
00000000
00000000
00000000
00000000
00000000
00000000
00000000
00000000
00000000
00000000
00000000
00000000
00000000
00000000
00000000
00000000
00000000
00000000
00000000
00000000
00000000
00000000
00000000
00000000
00000000
00000000
00000000
00000000
00000000
00000000
00000000
00000000
00000000
00000000
00000000
00000000
00000000
00000000
00000000
00000000
00000000
00000000
00000000
00000000
00000000
00000000
00000000
00000000
00000000
00000000
00000000
00000000
00000000
00000000
00000000
00000000
00000000
00000000
00000000
00000000
00000000
00000000
00000000
00000000
00000000
00000000
00000000
00000000
00000000
00000000
00000000
00000000
00000000
00000000
00000000
00000000
00000000
00000000
00000000
00000000
00000000
00000000
00000000
00000000
00000000
00000000
00000000
00000000
00000000
00000000
00000000
00000000
00000000
00000000
00000000
00000000
00000000
00000000
00000000
00000000
00000000
00000000
00000000
00000000
00000000
00000000
00000000
00000000
00000000
00000000
00000000
00000000
00000000
00000000
00000000
00000000
00000000
00000000
00000000
00000000
00000000
00000000
00000000
00000000
00000000
00000000
00000000
00000000
00000000
00000000
00000000
00000000
00000000
00000000
00000000
00000000
00000000
00000000
00000000
00000000
00000000
00000000
00000000
00000000
00000000
00000000
00000000
00000000
00000000
