00000006
fffffffc
00000001
fffffff5
fffffffe
00000003
fffffff9
0000000c
0000000a
fffffffa
fffffffe
fffffffd
00000000
00000010
00000002
fffffff9
fffffffb
0000000c
0000000a
fffffffe
00000004
00000007
fffffffc
fffffffd
00000007
fffffffd
fffffffa
00000007
0000000a
fffffffb
fffffffa
0000000b
00000009
fffffffb
00000001
0000000d
00000001
fffffff9
00000004
fffffff9
fffffffe
00000005
ffffffef
0000000b
0000001f
00000025
fffffff4
00000003
00000001
ffffffee
0000000f
0000000f
fffffffd
00000003
00000003
00000002
00000009
00000009
fffffff5
fffffff8
00000008
fffffffe
fffffff1
fffffffc
0000001b
0000001e
00000020
0000000e
00000016
0000000a
fffffffa
ffffffe9
ffffffe9
0000000d
0000000b
fffffff3
00000010
00000015
0000000d
00000021
0000000c
00000007
00000001
00000007
fffffff6
fffffffb
00000000
00000000
ffffffee
00000010
0000001a
00000016
0000001b
0000002b
00000018
0000000a
0000000c
0000000a
fffffff6
ffffffe6
ffffffdb
fffffff7
fffffff4
fffffff3
ffffffe2
fffffff1
ffffffff
fffffff3
00000001
fffffffd
0000000b
fffffffe
0000000a
fffffff7
ffffffff
fffffffc
fffffffe
fffffffd
00000019
00000015
0000001a
00000008
00000009
00000013
00000000
fffffffc
fffffff2
fffffff3
ffffffe8
fffffff0
0000000a
fffffff9
fffffff1
ffffffef
fffffff0
ffffffe5
ffffffcf
ffffffe6
ffffffed
0000000a
00000008
00000003
00000012
00000008
00000001
ffffffe6
ffffffef
00000008
0000000d
00000012
0000001d
00000014
00000016
0000001e
00000005
00000017
00000021
0000001a
00000009
fffffffe
00000006
00000001
fffffffe
fffffff1
ffffffdd
fffffff5
ffffffe1
fffffffc
00000004
fffffffc
00000006
00000003
00000001
ffffffe2
00000006
00000009
00000013
00000013
00000017
00000020
00000023
00000026
0000002e
00000026
00000019
0000000f
0000000d
00000000
fffffffe
fffffff2
00000003
ffffffde
ffffffe1
ffffffe5
ffffffed
ffffffeb
fffffff4
00000008
fffffffc
00000008
00000005
0000000c
00000006
00000002
0000000b
00000010
0000000c
00000020
0000002c
00000024
00000023
00000009
fffffffb
fffffffd
fffffffa
ffffffff
00000008
fffffff9
fffffff6
ffffffcb
ffffffe2
ffffffe5
ffffffeb
ffffffff
fffffff3
00000000
fffffff5
fffffff6
00000009
fffffffb
fffffff5
00000004
00000019
0000000d
0000000d
00000011
fffffffd
00000003
00000016
fffffff4
fffffffd
fffffffc
00000005
00000003
fffffffb
fffffff3
fffffff0
ffffffe7
ffffffcf
ffffffd0
ffffffe7
fffffff4
ffffffff
00000001
fffffff5
fffffff2
00000009
00000014
00000007
00000012
00000008
00000001
00000005
fffffff6
fffffff9
ffffffd4
ffffffdf
ffffffff
00000002
0000000f
00000017
0000000a
00000007
fffffff0
fffffff5
00000003
ffffffc6
ffffffd5
ffffffe6
00000011
00000000
00000000
00000006
00000018
fffffffc
00000004
0000001d
00000000
fffffffe
fffffff1
ffffffe7
ffffffd3
ffffffce
ffffffd2
ffffffd7
ffffffda
fffffffd
0000001d
0000001b
00000012
fffffff4
00000005
fffffff0
0000000e
ffffffeb
ffffffe3
fffffff1
00000003
ffffffe9
ffffffe8
ffffffe2
00000013
00000006
0000000b
00000012
fffffff3
ffffffee
ffffffde
ffffffce
ffffffc0
ffffffc3
ffffffcc
ffffffdd
fffffff2
00000003
0000000d
ffffffff
0000000a
00000000
00000018
00000007
00000014
fffffffe
ffffffe1
ffffffe4
ffffffec
fffffffd
ffffffe6
ffffffef
00000013
fffffff1
ffffffe2
ffffffed
ffffffdf
ffffffe3
ffffffd0
ffffffe3
ffffffdc
ffffffcd
ffffffe6
fffffff0
ffffffed
ffffffed
ffffffea
fffffff9
00000006
00000008
fffffffc
00000010
0000000d
0000000a
ffffffe0
fffffffa
00000003
ffffffff
fffffffa
ffffffed
00000004
ffffffeb
ffffffe0
ffffffd1
ffffffcd
ffffffe4
fffffff5
fffffff6
fffffff3
00000006
00000014
00000000
ffffffed
fffffff4
ffffffeb
ffffffeb
00000010
00000006
00000010
0000000c
00000007
00000018
00000001
00000018
0000000f
fffffff7
ffffffe5
ffffffe3
00000018
ffffffe8
ffffffe3
fffffff2
ffffffff
fffffffb
00000007
fffffffe
fffffffa
00000006
00000011
ffffffff
fffffff6
fffffff2
fffffff1
fffffffb
00000008
00000013
0000000d
0000000c
fffffffa
fffffff9
ffffffe5
0000001f
0000001b
fffffff8
fffffff6
ffffffdf
00000011
fffffff8
00000003
00000008
0000000b
0000000b
00000019
00000006
fffffff8
fffffff9
00000003
00000002
00000002
ffffffeb
ffffffff
fffffffe
0000000a
0000000b
0000000e
fffffff7
00000000
00000000
fffffff5
00000010
00000016
00000008
fffffff1
00000003
00000019
00000005
0000000c
00000011
ffffffe9
ffffffe2
fffffff3
00000001
fffffffe
fffffffd
00000004
ffffffea
ffffffec
fffffff3
00000006
00000007
00000014
00000005
0000000f
fffffff9
fffffffd
ffffffff
00000010
00000012
00000006
fffffffd
ffffffe9
fffffff3
00000017
00000017
0000000d
0000000a
ffffffeb
fffffffb
fffffffb
00000002
fffffff6
ffffffff
fffffffa
ffffffea
fffffff4
00000003
00000008
fffffff8
fffffffd
ffffffe7
ffffffe7
ffffffe9
ffffffe9
fffffff0
00000021
ffffffff
0000001a
fffffffb
fffffffb
ffffffe6
00000019
00000013
00000010
00000016
00000000
0000000b
fffffffc
fffffff7
ffffffff
00000013
fffffff1
ffffffe7
fffffff8
00000011
0000001a
00000005
fffffffd
ffffffeb
ffffffdb
ffffffec
ffffffe6
00000001
00000010
0000000e
0000000a
00000000
ffffffe6
fffffff6
00000002
0000000d
00000010
00000004
00000011
00000002
00000002
fffffffd
00000012
00000009
ffffffff
fffffffb
0000000c
00000019
ffffffff
00000000
fffffff3
ffffffec
ffffffe1
ffffffe8
ffffffda
fffffffb
0000000f
00000008
fffffffd
00000001
00000001
00000002
0000000b
ffffffff
0000000d
00000002
00000005
ffffffff
00000006
fffffffd
00000006
00000000
00000002
00000004
0000000a
0000001a
ffffffff
0000000e
fffffff4
ffffffef
ffffffee
ffffffe5
00000006
0000000c
0000000c
00000008
ffffffee
fffffff6
00000014
00000031
0000001b
fffffff2
fffffffe
00000007
ffffffff
fffffff3
00000006
fffffffa
fffffffe
0000000e
00000010
0000000b
0000000a
0000001d
0000000b
0000000b
00000012
00000003
fffffff4
fffffff7
00000010
00000023
00000009
00000009
fffffff6
fffffffa
0000000b
00000028
00000026
fffffffe
fffffff6
00000003
fffffffb
0000000c
fffffffb
0000000f
00000006
00000007
00000012
0000000e
0000001a
00000018
0000000d
00000009
00000012
00000005
fffffff9
0000001d
00000011
0000001e
fffffff0
fffffff3
00000003
fffffff6
0000000c
00000010
00000022
fffffff6
00000012
00000012
00000018
00000009
00000009
00000009
00000017
00000008
00000017
0000001b
0000001a
0000001a
00000010
00000011
00000023
0000002c
00000029
00000025
00000017
0000002f
fffffff2
ffffffed
fffffff4
00000000
0000000a
ffffffee
00000000
fffffffc
ffffffe2
ffffffeb
fffffffe
0000000b
fffffffb
00000003
00000008
00000009
0000000b
00000010
0000000f
0000000b
00000010
00000015
00000013
00000029
00000025
00000016
00000020
00000034
0000001a
00000005
0000000a
00000000
fffffff5
0000001d
ffffffeb
ffffffff
fffffff9
fffffff3
ffffffe4
ffffffd3
ffffffda
ffffffde
ffffffde
fffffff4
fffffff4
ffffffef
fffffff5
00000005
00000028
00000016
00000018
00000026
00000024
00000006
fffffff6
00000006
0000001a
00000004
fffffffe
fffffff9
fffffffd
00000004
fffffffe
fffffffa
00000008
fffffffc
ffffffd5
ffffffe9
fffffff4
00000009
ffffffed
00000009
0000000a
ffffffef
ffffffea
00000004
00000006
00000000
00000018
00000028
00000021
00000011
00000011
00000007
fffffff5
fffffff5
0000000c
fffffffe
fffffff4
00000006
fffffff9
fffffffd
00000002
00000001
00000002
fffffff6
ffffffce
ffffffdb
ffffffe6
fffffffd
ffffffe8
ffffffe4
ffffffd4
ffffffe8
ffffffe6
fffffff5
00000000
00000024
00000025
00000012
00000000
fffffff9
00000004
00000002
0000000a
fffff003
00000000
00000000
00000000
00000000
00000000
00000000
00000000
00000000
00000000
00000000
00000000
00000000
00000000
00000000
7fffffff
00000000
00000000
00000000
00000000
00000000
00000000
00000000
00000000
00000000
00000000
00000000
00000000
00000000
00000000
00000000
00000000
00000000
00000000
00000000
00000000
00000000
00000000
00000000
00000000
00000000
00000000
00000000
00000000
00000000
00000000
00000000
00000000
00000000
00000000
00000000
00000000
00000000
00000000
00000000
00000000
00000000
00000000
00000000
00000000
00000000
00000000
00000000
00000000
00000000
00000000
00000000
00000000
00000000
00000000
00000000
00000000
00000000
00000000
00000000
00000000
00000000
00000000
00000000
00000000
00000000
00000000
00000000
00000000
00000000
00000000
00000000
00000000
00000000
00000000
00000000
00000000
00000000
00000000
00000000
00000000
00000000
00000000
00000000
00000000
00000000
00000000
00000000
00000000
00000000
00000000
00000000
00000000
00000000
00000000
00000000
00000000
00000000
00000000
00000000
00000000
00000000
00000000
00000000
00000000
00000000
00000000
00000000
00000000
00000000
00000000
00000000
00000000
00000000
00000000
00000000
00000000
00000000
00000000
00000000
00000000
00000000
00000000
00000000
00000000
00000000
00000000
00000000
00000000
00000000
00000000
00000000
00000000
00000000
00000000
00000000
00000000
00000000
00000000
00000000
00000000
00000000
00000000
00000000
00000000
00000000
00000000
00000000
00000000
00000000
00000000
00000000
00000000
00000000
00000000
00000000
00000000
00000000
00000000
00000000
00000000
00000000
00000000
00000000
00000000
00000000
00000000
00000000
00000000
00000000
00000000
00000000
00000000
00000000
00000000
00000000
00000000
00000000
00000000
00000000
00000000
00000000
00000000
00000000
00000000
00000000
00000000
00000000
00000000
00000000
00000000
00000000
00000000
00000000
00000000
00000000
00000000
00000000
00000000
00000000
00000000
00000000
00000000
00000000
00000000
00000000
00000000
00000000
00000000
00000000
00000000
00000000
00000000
00000000
00000000
00000000
00000000
00000000
00000000
00000000
00000000
00000000
00000000
00000000
00000000
