fffffffa
0000000b
0000000a
00000009
00000009
fffffff6
fffffffa
fffffff5
fffffff8
fffffff4
00000005
0000000a
fffffffc
fffffffc
00000013
00000000
fffffff9
fffffffe
fffffffb
00000008
00000002
00000006
fffffffa
00000006
00000002
fffffff8
fffffff8
0000000c
fffffff5
00000002
ffffffff
fffffffb
fffffff5
ffffffef
ffffffec
ffffffee
fffffff2
fffffffa
fffffff7
fffffffe
fffffff5
00000003
fffffffc
00000005
0000000a
00000003
ffffffdd
ffffffef
fffffff8
fffffff0
ffffffe1
ffffffe3
00000002
fffffff7
00000003
0000000a
00000005
00000008
fffffffd
00000008
fffffffe
ffffffe5
ffffffdc
ffffffde
ffffffcd
ffffffcb
ffffffce
ffffffb7
ffffffe1
ffffffdb
ffffffd9
ffffffcf
ffffffe2
fffffff7
ffffffd0
ffffffd5
ffffffdd
ffffffe5
ffffffe2
ffffffd5
ffffffeb
00000005
fffffff9
00000006
fffffff5
00000002
00000001
0000000d
fffffff5
ffffffed
ffffffd5
ffffffcb
ffffffd4
ffffffd5
ffffffcb
ffffffdd
ffffffc5
ffffffc7
ffffffc7
ffffffd4
ffffffea
fffffff6
ffffffe6
ffffffd6
ffffffef
ffffffe6
ffffffe1
ffffffe5
00000004
00000013
0000000f
fffffffe
00000004
00000004
fffffff1
00000024
fffffffb
ffffffe5
fffffff2
ffffffee
ffffffe7
fffffff1
ffffffde
ffffffeb
ffffffdd
ffffffdf
ffffffcf
ffffffda
ffffffdb
ffffffe4
ffffffe5
ffffffd9
ffffffca
ffffffdf
ffffffe1
0000000d
0000002e
00000037
0000002a
fffffffb
fffffffd
00000009
ffffffde
0000001d
ffffffef
00000019
0000000f
fffffff4
00000014
ffffffff
00000006
00000012
00000003
ffffffff
fffffff5
ffffffee
ffffffe8
ffffffdd
ffffffe2
ffffffdc
ffffffd3
ffffffd8
ffffffea
ffffffed
00000010
00000024
00000007
fffffffe
fffffff9
fffffffd
00000022
00000023
00000000
00000018
00000012
fffffffc
00000006
0000001e
00000023
0000000d
00000008
00000012
00000023
00000016
0000000f
0000001a
00000011
00000007
ffffffe9
0000000e
fffffffd
ffffffef
00000003
fffffff9
ffffffec
fffffff8
00000002
fffffffe
00000041
00000036
ffffffed
00000002
00000016
fffffff6
00000011
00000010
0000000b
0000000a
00000026
00000026
00000017
0000001b
0000001a
0000002f
0000001a
00000009
fffffffc
00000009
00000006
00000006
00000009
fffffffa
ffffffdf
0000000b
0000000e
00000014
0000001a
00000019
fffffff5
00000001
00000010
00000002
00000009
00000010
00000018
0000001a
00000033
00000016
00000035
00000032
00000031
00000022
00000021
00000002
0000000b
00000001
00000008
00000010
00000005
ffffffe4
ffffffef
00000006
00000002
0000001b
00000023
00000022
0000000e
0000001b
00000018
fffffffd
0000000e
0000001b
00000024
00000022
00000027
0000001d
0000001f
00000038
00000031
00000039
00000020
00000014
0000000e
fffffff6
00000009
00000015
fffffff8
ffffffea
ffffffd0
fffffff3
0000000c
00000013
00000029
00000024
fffffff8
00000008
00000021
0000000e
00000007
00000011
00000009
00000000
0000000d
00000010
0000001e
00000016
0000001f
0000001b
00000010
00000006
0000001c
00000011
0000000c
fffffff7
fffffff3
ffffffd7
ffffffca
ffffffed
00000009
0000002c
00000028
0000001d
ffffffff
fffffff0
00000014
0000000a
ffffffff
00000006
00000001
00000002
00000009
00000002
fffffffe
0000000b
fffffff3
00000009
00000009
00000009
00000022
0000000c
00000016
fffffff7
ffffffeb
ffffffe1
0000000c
ffffffe4
0000000f
0000001c
00000028
0000001e
00000018
ffffffff
00000003
fffffffc
0000000d
fffffffa
fffffffa
fffffff3
ffffffea
ffffffef
ffffffe0
fffffff0
ffffffe0
fffffff8
0000001a
0000000d
00000005
0000000c
00000005
fffffff1
ffffffed
fffffff3
00000019
fffffffa
fffffffa
00000012
0000002a
0000001e
00000026
fffffff6
00000006
00000002
ffffffff
fffffff8
fffffffe
fffffff4
00000006
fffffff8
ffffffef
ffffffdf
ffffffdf
fffffff8
0000001a
fffffffa
fffffffe
00000006
00000010
fffffff1
fffffff0
00000012
0000002e
0000000b
fffffff3
ffffffff
0000001e
0000001a
00000015
fffffffb
fffffffc
0000000d
00000010
fffffffd
fffffff8
00000000
00000005
fffffff5
fffffff1
ffffffe9
ffffffdc
00000007
0000000b
00000016
0000000d
00000011
00000004
00000002
fffffffe
0000000f
00000028
00000001
fffffff0
0000000b
fffffff2
00000000
00000028
00000007
00000006
00000005
00000008
fffffff9
00000001
00000004
fffffff9
fffffff5
ffffffea
fffffff4
ffffffde
0000001a
00000014
00000018
00000013
0000000f
00000010
00000014
00000010
ffffffee
0000002b
00000032
00000006
fffffff4
ffffffe7
00000000
00000022
00000009
00000000
0000000d
00000005
fffffff5
fffffff6
fffffffa
00000012
00000003
fffffff8
fffffff6
fffffff5
00000020
00000016
00000004
00000020
0000000c
0000000f
00000000
fffffffd
ffffffde
0000002b
00000021
fffffff4
0000000c
fffffff4
0000000d
0000001c
fffffff6
ffffffef
fffffff6
00000002
00000003
00000001
00000008
00000015
00000008
ffffffef
00000001
00000002
0000001b
00000009
00000005
0000000e
00000011
00000007
00000008
00000007
fffffff8
00000018
0000000e
0000001b
0000000a
ffffffff
fffffff8
0000000c
fffffffe
fffffff5
fffffffc
00000009
fffffff2
00000001
00000000
ffffffee
ffffffe4
ffffffea
fffffffa
00000004
0000000e
00000001
0000000f
fffffffd
0000000d
00000018
fffffff3
fffffff1
fffffffd
0000000e
00000001
fffffff7
0000002b
00000017
00000009
0000000e
fffffffd
ffffffe3
ffffffed
ffffffe0
ffffffde
fffffff5
fffffffb
fffffff7
ffffffe2
fffffff1
ffffffec
00000003
00000008
00000009
00000000
0000000f
0000000d
fffffffa
fffffff8
0000000a
ffffffe4
00000015
fffffff8
0000000b
0000001c
00000005
00000015
00000019
0000001b
fffffff3
ffffffd9
ffffffec
ffffffee
ffffffe5
ffffffe1
fffffff3
ffffffe8
ffffffed
fffffff2
fffffff6
0000000a
fffffffa
00000011
00000004
00000001
ffffffef
00000006
00000008
fffffff2
fffffffb
00000007
fffffff4
00000012
ffffffe3
fffffff4
fffffff6
00000007
fffffffd
fffffff2
ffffffe5
ffffffd1
ffffffe8
ffffffe9
ffffffe9
ffffffe1
fffffff1
fffffff9
fffffff7
fffffffc
ffffffe6
fffffffc
ffffffe1
fffffffc
fffffff5
ffffffef
00000007
ffffffe8
0000001c
fffffffe
fffffffb
fffffff8
fffffff4
ffffffe2
ffffffe4
fffffff3
0000000d
0000000d
ffffffeb
fffffff8
fffffff5
fffffffc
fffffff8
fffffffd
00000003
fffffff4
fffffffe
fffffff5
fffffff5
ffffffe0
ffffffdb
fffffff0
00000004
00000001
0000000d
fffffff8
fffffff5
fffffff8
00000001
fffffff9
fffffff8
ffffffe6
fffffff6
00000006
0000001f
0000002a
00000003
fffffffd
00000000
00000016
00000013
00000011
00000006
fffffff9
00000005
fffffff5
fffffff2
ffffffef
ffffffdc
ffffffe5
fffffff4
00000000
00000010
fffffff3
ffffffdd
00000004
00000001
00000003
0000000c
00000019
00000047
0000002f
00000020
00000030
00000017
00000008
0000000b
fffffffd
00000005
00000011
00000000
00000007
00000000
00000002
fffffffa
ffffffeb
fffffff6
fffffff8
00000009
fffffff7
fffffffd
ffffffea
fffffff7
fffffffa
fffffffd
00000006
ffffffe9
00000019
0000002b
00000028
00000003
00000016
00000007
00000009
0000000e
0000001a
00000012
00000007
0000000a
00000015
00000011
00000000
00000003
00000008
0000000b
00000010
fffffff6
fffffff2
ffffffe8
00000004
fffffff1
00000001
00000008
0000000b
00000000
00000015
fffffff4
00000008
00000006
00000036
0000003d
00000029
00000029
00000015
0000001a
0000002f
0000004a
0000002a
0000003c
00000027
0000002f
00000029
00000026
00000022
00000024
0000000c
00000016
00000011
00000007
fffffff7
00000001
00000002
00000006
fffffff4
00000009
00000004
0000001a
00000011
0000001d
00000026
00000029
0000000a
ffffffff
00000033
00000049
00000022
0000001d
00000046
0000002f
00000022
0000001f
0000002a
00000027
0000000e
fffffffb
fffffffc
fffffff5
fffffff7
000010c0
00000000
00000000
00000000
00000000
00000000
00000000
00000000
00000000
00000000
00000000
00000000
00000000
00000000
00000000
7fffffff
00000000
00000000
00000000
00000000
00000000
00000000
00000000
00000000
00000000
00000000
00000000
00000000
00000000
00000000
00000000
00000000
00000000
00000000
00000000
00000000
00000000
00000000
00000000
00000000
00000000
00000000
00000000
00000000
00000000
00000000
00000000
00000000
00000000
00000000
00000000
00000000
00000000
00000000
00000000
00000000
00000000
00000000
00000000
00000000
00000000
00000000
00000000
00000000
00000000
00000000
00000000
00000000
00000000
00000000
00000000
00000000
00000000
00000000
00000000
00000000
00000000
00000000
00000000
00000000
00000000
00000000
00000000
00000000
00000000
00000000
00000000
00000000
00000000
00000000
00000000
00000000
00000000
00000000
00000000
00000000
00000000
00000000
00000000
00000000
00000000
00000000
00000000
00000000
00000000
00000000
00000000
00000000
00000000
00000000
00000000
00000000
00000000
00000000
00000000
00000000
00000000
00000000
00000000
00000000
00000000
00000000
00000000
00000000
00000000
00000000
00000000
00000000
00000000
00000000
00000000
00000000
00000000
00000000
00000000
00000000
00000000
00000000
00000000
00000000
00000000
00000000
00000000
00000000
00000000
00000000
00000000
00000000
00000000
00000000
00000000
00000000
00000000
00000000
00000000
00000000
00000000
00000000
00000000
00000000
00000000
00000000
00000000
00000000
00000000
00000000
00000000
00000000
00000000
00000000
00000000
00000000
00000000
00000000
00000000
00000000
00000000
00000000
00000000
00000000
00000000
00000000
00000000
00000000
00000000
00000000
00000000
00000000
00000000
00000000
00000000
00000000
00000000
00000000
00000000
00000000
00000000
00000000
00000000
00000000
00000000
00000000
00000000
00000000
00000000
00000000
00000000
00000000
00000000
00000000
00000000
00000000
00000000
00000000
00000000
00000000
00000000
00000000
00000000
00000000
00000000
00000000
00000000
00000000
00000000
00000000
00000000
00000000
00000000
00000000
00000000
00000000
00000000
00000000
00000000
00000000
00000000
00000000
00000000
00000000
