fffffff5
0000000d
fffffff5
00000000
fffffffe
fffffffe
00000004
0000000a
00000003
00000002
00000006
00000003
fffffffd
0000000b
00000006
00000006
fffffffa
0000000a
0000000c
00000006
fffffff7
fffffffd
fffffffa
fffffffb
00000003
00000002
ffffffff
00000004
fffffffb
0000000c
fffffff9
00000009
00000001
0000000d
0000000e
00000013
00000008
00000013
00000014
fffffff1
00000010
fffffff8
ffffffeb
fffffff6
0000000d
0000001a
00000026
00000018
00000021
0000000c
00000020
0000001a
fffffff4
0000000a
00000003
0000000b
fffffffa
0000000a
fffffffb
fffffff5
ffffffee
0000001e
00000027
00000020
0000002f
0000003a
00000048
0000003d
00000037
00000004
00000029
0000000a
0000000a
00000016
00000008
0000000a
0000000b
00000020
00000016
00000025
0000002a
00000004
fffffff5
0000000c
00000000
00000006
fffffff0
ffffffef
fffffff6
ffffffec
00000005
ffffffff
0000000d
00000021
00000013
00000015
00000010
00000017
00000009
00000013
0000001a
0000000c
00000017
0000000d
ffffffe8
00000014
00000017
00000015
00000005
fffffff9
00000000
00000007
fffffff7
fffffff2
ffffffed
ffffffea
fffffff6
ffffffec
0000000c
fffffff0
fffffff9
00000002
00000001
00000009
0000000d
0000000c
00000011
0000000d
00000010
00000013
0000000c
00000003
0000000d
00000007
00000005
fffffffa
ffffffeb
00000006
00000015
00000015
fffffff6
00000003
00000013
fffffffb
00000000
fffffffc
fffffff0
ffffffee
ffffffe1
ffffffe6
ffffffe9
ffffffe4
fffffffb
fffffff7
fffffffc
00000003
0000000a
00000011
00000019
0000001a
0000001e
0000000b
fffffff0
ffffffff
fffffffa
00000011
0000000c
00000017
fffffffd
fffffff1
0000000c
ffffffe3
ffffffee
ffffffd0
ffffffd7
ffffffdc
ffffffc4
ffffffcc
ffffffd1
ffffffec
ffffffe5
ffffffe0
ffffffee
00000006
0000000d
00000014
0000000f
00000011
00000001
fffffff2
fffffff6
fffffffc
fffffff4
0000001c
fffffff8
00000001
ffffffff
ffffffea
0000000c
ffffffe3
ffffffeb
ffffffdf
ffffffcd
ffffffcd
ffffffd6
ffffffdb
ffffffde
ffffffe5
fffffff9
fffffffb
fffffff7
00000004
00000009
fffffff6
0000000a
00000004
ffffffff
0000000f
fffffffb
fffffff0
fffffffd
00000028
00000010
00000006
ffffffec
ffffffec
00000001
ffffffeb
ffffffd3
ffffffd1
ffffffd3
ffffffcc
ffffffda
fffffff0
00000003
00000001
fffffff4
fffffff7
00000001
ffffffff
fffffffe
ffffffff
fffffffd
0000000e
fffffffc
00000000
ffffffff
fffffff6
0000000b
00000006
00000015
fffffffc
00000003
ffffffd4
fffffff2
fffffffa
ffffffd4
ffffffc8
ffffffd8
ffffffe3
fffffff0
00000010
00000011
fffffffc
fffffffe
0000000a
fffffff5
fffffffc
fffffff8
00000004
fffffff6
00000005
00000009
fffffffe
ffffffee
fffffff3
ffffffef
fffffff2
fffffffb
ffffffee
fffffff6
fffffffa
fffffff4
fffffffa
ffffffee
ffffffe7
fffffff0
00000006
00000005
00000013
0000000c
0000000e
00000003
ffffffee
ffffffe7
ffffffe8
ffffffed
ffffffea
fffffffd
00000006
00000005
00000006
fffffff1
00000002
ffffffe4
fffffff0
ffffffe1
ffffffd9
fffffffc
fffffff5
ffffffeb
ffffffd9
fffffff4
00000014
00000007
0000000f
00000013
00000008
fffffff6
fffffff8
ffffffec
ffffffd2
ffffffdd
ffffffeb
fffffff6
fffffff3
fffffff5
00000014
00000012
0000000a
00000002
00000006
fffffff3
00000012
ffffffd5
ffffffe3
00000003
ffffffe7
ffffffe3
ffffffda
ffffffff
0000000d
0000001a
0000000a
00000004
0000001a
00000003
fffffff8
ffffffe9
00000004
fffffffb
ffffffed
fffffffa
fffffff8
fffffffb
00000005
00000015
00000015
00000002
0000001d
00000006
fffffff7
ffffffdc
fffffffc
00000007
fffffff6
ffffffef
ffffffe9
fffffff8
fffffff5
00000013
00000023
00000012
fffffffd
0000001a
0000000d
00000028
0000003f
00000012
00000007
fffffffb
00000001
fffffffe
0000000a
fffffffa
fffffff6
00000004
00000013
ffffffea
ffffffeb
0000000d
0000000d
fffffffe
ffffffec
ffffffe5
fffffff8
00000006
fffffff6
00000015
00000018
00000014
0000000d
0000000a
0000002e
00000026
00000032
0000000f
00000013
00000014
ffffffff
fffffffd
fffffff5
ffffffee
fffffff3
fffffff3
ffffffe7
fffffff6
00000019
00000034
00000015
fffffff6
ffffffef
ffffffe5
0000002a
0000001a
00000007
0000000e
00000004
0000000c
00000010
00000015
00000034
00000030
00000025
00000011
00000009
00000014
00000004
fffffff9
fffffff3
ffffffea
ffffffe0
ffffffec
ffffffed
fffffff6
00000030
00000021
0000002e
00000009
fffffffa
fffffff9
00000028
00000006
00000005
00000017
00000007
0000000c
00000013
00000028
00000039
00000030
0000000e
00000017
00000005
0000001c
00000008
fffffff8
fffffff5
ffffffe4
fffffff7
0000000f
ffffffeb
fffffff0
00000040
00000024
00000016
00000006
00000000
fffffffb
00000018
00000005
fffffff6
0000000a
00000000
0000001c
0000001f
00000024
0000002e
0000000f
00000005
0000000e
0000000c
00000016
fffffff3
ffffffeb
fffffff6
ffffffeb
ffffffeb
fffffffb
ffffffe3
fffffff4
00000012
00000006
00000004
0000001c
fffffffd
ffffffe9
00000016
0000000f
00000008
00000021
00000026
00000014
0000001d
0000001a
0000000f
00000004
ffffffff
00000014
fffffffe
fffffff8
fffffffc
fffffff8
fffffffc
00000004
fffffffa
00000008
00000014
0000000c
00000022
00000005
0000000f
00000006
ffffffeb
fffffff6
00000004
0000000a
00000009
00000005
00000015
fffffffb
0000000d
00000013
fffffff9
fffffff4
fffffff5
fffffffd
0000000d
0000000a
00000013
00000008
00000009
fffffffd
0000001a
00000028
0000003b
00000018
00000014
0000001a
00000003
fffffff9
ffffffe7
00000017
00000013
0000001d
00000012
fffffffd
0000001a
fffffff5
00000000
fffffff3
fffffff5
ffffffdf
ffffffe9
ffffffff
00000011
00000004
00000006
0000000d
00000006
00000012
00000017
00000021
00000028
0000001b
00000012
00000019
fffffff9
00000007
fffffffd
00000010
0000000f
0000001b
0000000b
00000003
00000001
ffffffff
0000000e
00000000
00000004
fffffff4
fffffff6
fffffffb
0000000a
00000019
0000001b
0000001f
0000000f
00000001
0000001a
00000027
0000001f
00000004
fffffffd
fffffffb
00000004
fffffff7
ffffffff
00000008
00000021
00000014
fffffffe
fffffff5
fffffff6
fffffff8
fffffffa
00000006
fffffffa
ffffffff
0000000c
fffffff7
ffffffee
fffffff4
fffffff7
fffffffc
00000003
0000000d
00000012
00000021
0000001e
00000022
00000007
ffffffee
ffffffff
00000003
fffffff9
0000000f
00000010
fffffffa
ffffffec
ffffffe1
ffffffd5
ffffffe3
ffffffec
fffffff0
fffffff4
ffffffe5
ffffffe5
ffffffed
ffffffde
ffffffe8
ffffffec
fffffff7
00000008
0000001a
0000001f
0000002e
00000034
00000011
00000000
ffffffdd
00000004
fffffffe
fffffff7
00000001
ffffffe3
ffffffde
ffffffe2
ffffffe1
fffffff2
fffffffb
fffffff3
00000000
ffffffee
ffffffec
ffffffe6
ffffffe6
fffffff5
ffffffee
fffffff2
fffffff7
ffffffed
fffffffd
00000013
00000011
00000015
0000000c
0000001b
00000009
00000003
0000000a
fffffffa
00000005
ffffffe7
fffffff2
fffffff2
0000000d
00000005
fffffffe
00000006
fffffff6
00000004
00000009
00000001
0000001a
0000000a
fffffffd
0000000d
fffffffa
fffffff9
00000006
00000004
ffffffe6
00000004
ffffffea
00000011
0000000a
fffffff6
00000002
00000003
fffffff7
00000012
00000028
0000001d
00000033
0000002f
0000001c
00000006
0000001b
00000018
00000017
00000018
00000024
0000000b
00000003
00000013
ffffffff
fffffff8
00000022
00000000
ffffffe4
0000000b
00000014
fffffff3
0000000c
00000007
00000007
ffffffff
fffffff5
0000000b
ffffffe8
ffffffef
00000003
00000016
00000000
0000000b
00000010
00000022
0000001a
fffffff9
00000007
00000000
fffffff7
fffffff3
00000003
00000011
fffffffb
fffffff0
ffffffea
ffffffe6
0000000b
fffffffb
fffffffe
00000009
ffffe7e6
00000000
00000000
00000000
00000000
00000000
00000000
00000000
00000000
00000000
00000000
00000000
00000000
00000000
00000000
7fffffff
00000000
00000000
00000000
00000000
00000000
00000000
00000000
00000000
00000000
00000000
00000000
00000000
00000000
00000000
00000000
00000000
00000000
00000000
00000000
00000000
00000000
00000000
00000000
00000000
00000000
00000000
00000000
00000000
00000000
00000000
00000000
00000000
00000000
00000000
00000000
00000000
00000000
00000000
00000000
00000000
00000000
00000000
00000000
00000000
00000000
00000000
00000000
00000000
00000000
00000000
00000000
00000000
00000000
00000000
00000000
00000000
00000000
00000000
00000000
00000000
00000000
00000000
00000000
00000000
00000000
00000000
00000000
00000000
00000000
00000000
00000000
00000000
00000000
00000000
00000000
00000000
00000000
00000000
00000000
00000000
00000000
00000000
00000000
00000000
00000000
00000000
00000000
00000000
00000000
00000000
00000000
00000000
00000000
00000000
00000000
00000000
00000000
00000000
00000000
00000000
00000000
00000000
00000000
00000000
00000000
00000000
00000000
00000000
00000000
00000000
00000000
00000000
00000000
00000000
00000000
00000000
00000000
00000000
00000000
00000000
00000000
00000000
00000000
00000000
00000000
00000000
00000000
00000000
00000000
00000000
00000000
00000000
00000000
00000000
00000000
00000000
00000000
00000000
00000000
00000000
00000000
00000000
00000000
00000000
00000000
00000000
00000000
00000000
00000000
00000000
00000000
00000000
00000000
00000000
00000000
00000000
00000000
00000000
00000000
00000000
00000000
00000000
00000000
00000000
00000000
00000000
00000000
00000000
00000000
00000000
00000000
00000000
00000000
00000000
00000000
00000000
00000000
00000000
00000000
00000000
00000000
00000000
00000000
00000000
00000000
00000000
00000000
00000000
00000000
00000000
00000000
00000000
00000000
00000000
00000000
00000000
00000000
00000000
00000000
00000000
00000000
00000000
00000000
00000000
00000000
00000000
00000000
00000000
00000000
00000000
00000000
00000000
00000000
00000000
00000000
00000000
00000000
00000000
00000000
00000000
00000000
00000000
00000000
00000000
