00000007
fffffffa
00000006
00000005
00000002
fffffff8
fffffffd
00000004
00000000
fffffffa
fffffff4
fffffffb
ffffffef
fffffffd
0000000c
0000000a
00000009
00000007
00000004
fffffffa
fffffff4
00000001
00000002
fffffff5
fffffff6
fffffff6
fffffff5
00000003
fffffff7
fffffff4
fffffffa
fffffff5
00000005
00000002
fffffff1
fffffff1
fffffff6
ffffffe9
fffffff3
ffffffed
ffffffe6
ffffffed
0000000f
ffffffef
fffffff6
fffffff1
ffffffc5
ffffffc3
ffffffd6
ffffffe2
fffffff0
fffffffc
fffffffc
fffffff7
fffffff4
0000000c
ffffffff
fffffff9
ffffffef
00000004
ffffffea
fffffff2
ffffffe5
ffffffe1
ffffffe8
ffffffde
ffffffe4
ffffffd5
ffffffcc
ffffffc6
ffffffcf
fffffff5
ffffffe5
ffffffe9
00000005
fffffffb
ffffffff
ffffffe0
ffffffec
fffffff1
ffffffea
00000007
fffffff7
fffffff9
0000000b
ffffffff
fffffff5
0000000f
0000000b
00000007
00000006
fffffff4
fffffff5
ffffffc7
ffffffd9
ffffffd3
fffffff6
ffffffe2
fffffff0
0000000d
00000009
00000007
00000009
00000009
00000020
0000001b
00000004
00000010
fffffffc
fffffffc
fffffff6
fffffff5
0000000c
fffffffb
00000007
00000011
ffffffff
00000001
00000002
fffffffb
00000003
fffffff8
00000015
0000001e
0000001a
00000005
00000012
00000015
0000002a
00000027
00000029
00000012
00000011
00000017
00000007
fffffffc
00000010
0000000e
00000009
ffffffef
00000005
00000005
0000001e
fffffffd
fffffff9
00000003
00000002
fffffffa
ffffffeb
00000007
0000000c
0000001a
00000023
00000018
0000000f
0000000f
00000016
00000017
00000000
00000012
0000000f
00000000
fffffffd
fffffff4
fffffff7
0000001a
0000000c
fffffffc
fffffff9
00000015
00000009
ffffffea
fffffff6
fffffff2
00000001
fffffffa
00000006
0000000a
00000011
00000000
00000008
00000014
00000002
00000006
fffffffb
fffffff8
fffffff8
fffffffe
0000000c
ffffffed
00000002
00000005
00000010
00000027
00000021
00000007
00000003
fffffff7
ffffffe7
fffffff2
fffffffe
fffffffe
fffffff3
fffffff0
00000014
0000000b
0000000a
fffffff9
0000000b
00000004
fffffffc
fffffffe
fffffffa
fffffffb
fffffff0
fffffff5
fffffff5
00000000
ffffffef
0000000b
00000003
0000002e
0000001b
ffffffff
00000002
ffffffe8
fffffff2
ffffffe2
00000000
00000002
0000000c
fffffffa
00000010
00000003
fffffffd
fffffffb
fffffff8
fffffff1
ffffffff
fffffff4
00000000
fffffffd
00000005
00000010
00000003
00000001
fffffff0
00000001
00000012
00000047
0000004c
0000001b
ffffffea
ffffffe5
fffffffa
fffffff8
fffffff4
00000005
00000002
00000008
00000008
ffffffec
0000000b
ffffffff
fffffff8
fffffff6
ffffffed
fffffff9
00000007
0000000f
00000013
00000016
0000000a
00000011
00000004
00000000
00000000
00000045
00000047
ffffffeb
fffffff9
ffffffe8
ffffffd8
00000001
fffffffb
00000001
00000003
00000004
0000000b
fffffff1
fffffff6
fffffff7
0000000d
ffffffee
fffffff8
00000009
0000000a
0000000a
00000003
00000014
00000012
00000004
00000001
00000003
00000012
0000003c
00000043
fffffff5
ffffffea
ffffffed
ffffffcf
fffffffa
fffffffb
00000000
fffffff8
fffffff4
fffffff9
fffffff3
fffffff9
00000005
00000016
fffffffa
0000001c
0000001c
00000015
0000001d
00000012
00000013
00000004
fffffff3
fffffff1
00000008
00000028
00000037
0000003b
fffffffe
fffffffc
ffffffdd
ffffffe4
ffffffe1
fffffff7
fffffffe
fffffffc
fffffff0
fffffff1
fffffff0
00000002
00000003
00000014
00000037
00000035
00000034
0000001e
00000012
fffffffe
00000018
00000013
ffffffe9
ffffffec
fffffff6
fffffff3
00000005
00000018
ffffffe6
00000005
fffffff4
ffffffd2
ffffffe2
ffffffed
fffffff5
ffffffe0
fffffff7
ffffffff
fffffff8
fffffffc
0000000f
00000030
00000038
0000003a
0000002d
0000001d
00000010
0000000a
0000001e
0000000a
ffffffee
fffffffb
fffffffb
ffffffe0
fffffff4
0000000f
ffffffee
fffffff6
00000002
ffffffd4
ffffffed
ffffffe0
ffffffe7
fffffff2
fffffffb
fffffff5
00000005
fffffffd
00000015
00000018
00000033
00000042
00000036
00000029
00000012
00000007
fffffff8
fffffffd
fffffff2
ffffffef
ffffffe4
fffffff0
ffffffee
fffffff0
fffffff3
00000005
0000000e
0000000a
00000002
ffffffe6
ffffffef
fffffff6
ffffffeb
ffffffe2
fffffff8
fffffffc
00000001
0000000d
00000021
00000026
0000002d
00000012
00000003
ffffffeb
fffffff6
ffffffea
ffffffec
00000001
ffffffec
fffffff9
0000000c
0000000b
fffffff8
fffffff9
00000020
00000006
0000001c
fffffff1
ffffffe6
ffffffec
ffffffe2
ffffffd8
fffffff2
fffffff6
fffffffe
00000018
0000001b
00000018
0000000f
00000000
ffffffec
fffffff0
ffffffed
fffffffa
ffffffe7
fffffff9
00000012
0000000a
00000005
fffffff6
ffffffe9
00000004
0000001b
00000004
0000001b
00000003
fffffffb
fffffff6
ffffffea
ffffffe9
ffffffe3
ffffffc5
ffffffe1
fffffff7
00000006
fffffffc
fffffff6
ffffffe5
fffffffa
fffffff7
fffffff4
fffffff6
00000009
fffffffe
fffffffe
fffffffe
ffffffc7
ffffffee
fffffff2
ffffffe2
0000000d
0000000e
00000022
00000019
0000001c
0000001d
00000004
fffffff8
ffffffe8
ffffffdf
ffffffec
ffffffd3
fffffff0
ffffffd7
fffffff4
fffffff5
fffffff7
00000005
00000008
00000002
fffffff7
fffffff5
fffffff9
00000003
ffffffe2
ffffffed
ffffffe9
0000000b
ffffffea
fffffffc
00000024
00000022
00000018
00000016
0000000a
0000000b
00000003
fffffff9
ffffffe7
ffffffd3
ffffffe6
ffffffdb
00000004
00000007
00000009
0000001b
00000017
0000000a
00000003
ffffffff
0000000c
00000009
ffffffde
fffffff4
fffffff8
00000005
00000007
fffffff2
00000015
0000001e
00000024
00000020
00000014
00000017
00000007
fffffff6
00000004
ffffffe2
fffffffe
ffffffeb
0000000d
00000018
00000013
00000019
0000000d
00000014
fffffffc
00000001
0000000b
ffffffec
ffffffd9
ffffffe7
0000000c
00000003
00000004
fffffffe
fffffff9
00000012
0000001e
00000023
00000017
0000000c
00000002
00000002
fffffffd
fffffff5
fffffff3
00000004
fffffffc
00000009
0000000f
00000008
00000014
00000011
00000000
0000000c
ffffffeb
ffffffd9
ffffffdc
ffffffeb
ffffffff
fffffff9
ffffffff
00000001
00000024
00000026
00000008
0000000b
00000002
fffffff7
fffffff9
00000005
00000000
fffffffd
fffffff6
fffffffc
00000003
00000003
00000009
00000011
00000006
0000001b
0000000b
ffffffff
ffffffff
fffffff2
fffffff3
fffffff4
fffffff9
fffffffe
00000004
0000001a
0000002b
00000032
fffffffc
ffffffeb
fffffff9
00000009
00000001
fffffffb
00000000
00000001
fffffffd
fffffff1
fffffff3
00000006
0000001b
00000006
00000018
00000013
00000010
00000015
0000002a
fffffffe
fffffffd
00000006
fffffffa
fffffff5
fffffff6
00000018
0000002d
fffffffe
fffffff0
fffffff8
00000000
00000008
00000015
00000014
0000000f
fffffff6
00000001
fffffff8
fffffff4
0000001a
00000009
00000011
00000019
00000032
0000001e
00000015
0000002d
fffffff3
ffffffd8
fffffff6
00000009
00000009
0000000c
00000004
fffffff3
ffffffe0
fffffff9
00000012
00000002
0000002a
0000001b
00000023
00000008
00000017
00000016
00000024
00000014
00000016
00000011
00000013
0000001f
0000001a
00000008
00000006
00000024
00000018
fffffff9
00000003
00000002
fffffff6
0000000a
00000008
00000010
00000015
00000009
fffffffe
00000009
0000000f
0000000a
0000000d
0000000c
00000009
00000007
0000000a
0000000c
00000007
00000001
00000005
ffffffd2
0000000e
0000001b
fffffff3
00000001
fffffffd
00000002
fffffff6
0000000a
0000000a
00000005
00000008
ffffffff
fffffff8
ffffffe9
0000000c
00000006
fffffffb
ffffffff
fffffff7
00000013
00000010
ffffffe3
ffffffea
00000003
fffffff1
ffffffe9
fffffffc
ffffffee
00000003
fffffff6
00000000
fffffffc
00000008
00000009
fffffffb
0000000c
fffff8cb
00000000
00000000
00000000
00000000
00000000
00000000
00000000
00000000
00000000
00000000
00000000
00000000
00000000
00000000
00000000
00000000
00000000
00000000
00000000
00000000
00000000
00000000
00000000
00000000
00000000
00000000
00000000
00000000
00000000
00000000
00000000
00000000
00000000
00000000
00000000
00000000
00000000
00000000
00000000
00000000
00000000
00000000
00000000
00000000
00000000
00000000
00000000
00000000
00000000
00000000
00000000
00000000
00000000
00000000
00000000
00000000
00000000
00000000
00000000
00000000
00000000
00000000
00000000
00000000
00000000
00000000
00000000
00000000
00000000
00000000
00000000
00000000
00000000
00000000
00000000
00000000
00000000
00000000
00000000
00000000
00000000
00000000
00000000
00000000
00000000
00000000
00000000
00000000
00000000
00000000
00000000
00000000
00000000
00000000
00000000
00000000
00000000
00000000
00000000
00000000
00000000
00000000
00000000
00000000
00000000
00000000
00000000
00000000
00000000
00000000
00000000
00000000
00000000
00000000
00000000
00000000
00000000
00000000
00000000
00000000
00000000
00000000
00000000
00000000
00000000
00000000
00000000
00000000
00000000
00000000
00000000
00000000
00000000
00000000
00000000
00000000
00000000
00000000
00000000
00000000
00000000
00000000
00000000
00000000
00000000
00000000
00000000
00000000
00000000
00000000
00000000
00000000
00000000
00000000
00000000
00000000
00000000
00000000
00000000
00000000
00000000
00000000
00000000
00000000
00000000
00000000
00000000
00000000
00000000
00000000
00000000
00000000
00000000
00000000
00000000
00000000
00000000
00000000
00000000
00000000
00000000
00000000
00000000
00000000
00000000
00000000
00000000
00000000
00000000
00000000
00000000
00000000
00000000
00000000
00000000
00000000
00000000
00000000
00000000
00000000
00000000
00000000
00000000
00000000
00000000
00000000
00000000
00000000
00000000
00000000
00000000
00000000
00000000
00000000
00000000
00000000
00000000
00000000
00000000
00000000
00000000
00000000
00000000
00000000
00000000
00000000
00000000
00000000
00000000
00000000
00000000
00000000
00000000
00000000
00000000
00000000
00000000
00000000
00000000
