fffffffe
fffffff5
fffffffb
fffffff4
fffffffd
fffffff6
fffffffd
00000005
fffffff9
00000004
0000000c
ffffffff
fffffffb
ffffffe7
0000000e
00000007
fffffff9
fffffff7
fffffff7
0000000b
fffffff6
00000003
fffffff7
00000001
fffffffc
fffffffd
00000005
fffffff9
0000000a
00000000
00000007
0000000b
00000003
fffffff2
00000006
fffffffd
fffffffc
fffffff9
fffffffe
ffffffed
ffffffeb
ffffffeb
ffffffeb
ffffffec
00000018
00000016
00000019
0000000d
00000013
fffffff9
00000006
0000000a
fffffff7
fffffff7
fffffff7
00000001
fffffffa
ffffffff
0000000e
ffffffe7
fffffff3
00000004
fffffffb
fffffff3
00000016
00000026
0000003f
00000036
00000032
00000010
00000016
fffffff2
fffffff5
00000006
fffffff3
ffffffef
0000000f
00000014
00000009
00000007
0000001d
00000007
fffffff7
fffffff7
00000009
ffffffff
ffffffe8
fffffff3
ffffffef
00000018
00000019
00000023
00000007
0000001a
00000017
0000001e
00000005
fffffff1
0000000e
00000007
0000001f
00000014
00000008
ffffffff
fffffff6
ffffffef
ffffffef
fffffff5
00000000
fffffff7
fffffffb
0000000b
00000009
0000000c
fffffffc
fffffffb
00000018
0000001e
0000001c
0000000d
0000001b
00000012
00000012
00000010
00000010
00000002
00000007
fffffffa
0000000f
fffffff9
ffffffff
00000011
0000000c
fffffff3
fffffffd
fffffff8
ffffffe8
fffffffc
ffffffeb
00000017
fffffff9
fffffff7
00000021
00000003
00000019
00000007
0000000c
00000004
00000004
fffffffe
fffffff4
fffffff3
00000008
fffffffb
0000000f
00000002
00000016
fffffff9
00000009
fffffffd
fffffff5
ffffffff
fffffff7
00000004
00000017
0000000c
00000002
00000002
00000009
0000001a
fffffff4
0000000d
0000002e
00000019
0000000a
ffffffe8
fffffff5
fffffffb
ffffffec
ffffffdf
fffffff3
00000003
00000004
0000000d
00000007
fffffff6
ffffffda
ffffffd6
ffffffe0
fffffff5
fffffff5
0000000c
00000005
ffffffeb
00000002
00000007
0000000a
00000019
fffffff0
0000000b
00000028
00000018
fffffff1
00000002
fffffff4
fffffff8
ffffffdc
ffffffef
ffffffe5
ffffffef
0000000f
00000005
00000013
00000002
ffffffe5
ffffffe8
fffffff2
fffffff5
fffffffb
fffffff7
fffffffe
ffffffe3
ffffffdf
00000004
00000010
fffffffd
ffffffed
0000000a
0000002a
00000004
fffffffa
fffffffc
fffffff0
fffffffe
ffffffde
ffffffe1
ffffffe7
00000001
00000013
0000001b
00000007
fffffff7
ffffffda
ffffffe8
00000005
ffffffea
fffffffa
fffffff5
ffffffdb
ffffffe4
ffffffe0
fffffff0
fffffff4
00000006
ffffffea
fffffff5
00000004
00000008
fffffff6
00000002
ffffffff
ffffffeb
ffffffda
ffffffce
ffffffd9
fffffff5
fffffffe
00000007
fffffffc
ffffffef
ffffffe6
ffffffee
00000003
fffffff6
00000002
ffffffda
ffffffcd
ffffffbe
ffffffd3
ffffffdd
fffffff5
fffffff3
ffffffe9
00000007
ffffffe3
fffffffb
ffffffe7
ffffffeb
ffffffe4
ffffffd3
ffffffcf
ffffffd7
ffffffe8
0000000d
00000000
fffffff8
fffffff9
00000000
fffffff8
ffffffff
fffffff6
ffffffed
00000001
ffffffcf
ffffffda
ffffffe0
ffffffe3
ffffffea
00000005
00000000
ffffffe9
fffffff4
ffffffdb
ffffffe6
ffffffe8
fffffffc
fffffffc
fffffff6
fffffff3
fffffff8
00000018
00000012
fffffffd
fffffffe
00000000
fffffff3
fffffff2
00000002
ffffffde
fffffff0
ffffffea
ffffffd8
ffffffcb
ffffffda
ffffffc5
ffffffe5
00000006
fffffff1
ffffffe1
ffffffe7
ffffffba
ffffffe4
ffffffea
ffffffed
00000011
ffffffff
00000000
0000001d
00000030
00000029
fffffff9
fffffff4
00000011
fffffffe
ffffffe9
fffffff3
ffffffec
fffffffa
00000003
fffffff7
0000000d
fffffffe
ffffffcc
ffffffee
00000003
00000008
fffffff0
ffffffd9
ffffffd6
00000001
00000011
00000001
fffffffd
0000000d
00000022
00000029
0000001e
0000000e
ffffffed
fffffffe
fffffffa
00000004
00000008
ffffffef
fffffff7
fffffffe
00000009
0000001b
0000002b
00000005
0000000f
00000011
00000004
00000001
ffffffef
00000015
00000001
00000018
00000015
00000014
00000018
00000014
0000000c
0000001d
0000000f
00000000
fffffffd
fffffff1
00000014
00000001
00000001
00000001
00000007
00000007
0000001e
0000001b
0000001b
0000001f
00000020
00000023
00000005
fffffff9
00000011
0000001e
00000007
00000027
00000011
00000010
0000000b
0000001e
0000000f
0000000a
00000010
00000006
fffffff9
00000012
00000015
00000015
00000002
00000014
00000000
0000001c
0000002f
00000027
0000001e
00000019
0000001e
0000001f
fffffff7
0000000a
00000010
00000024
0000000e
0000000a
0000001b
00000018
0000000d
00000024
00000008
00000010
00000011
ffffffff
00000013
00000017
0000001c
0000001e
0000001c
00000026
00000029
00000033
0000002d
00000025
00000020
00000030
0000001c
0000001e
00000007
fffffffe
00000015
0000001b
00000014
00000007
00000002
00000012
0000000d
0000000e
fffffffd
00000012
fffffff9
ffffffff
0000000d
00000018
0000002b
00000028
00000036
0000002b
00000016
00000030
0000001f
00000019
00000000
00000010
fffffffb
00000010
fffffff0
00000000
ffffffff
00000018
00000014
00000006
00000002
0000001b
00000005
fffffffb
fffffff9
fffffff2
0000000a
ffffffff
00000009
00000018
0000002a
0000001f
0000002d
00000014
00000001
0000001d
00000011
fffffffd
fffffffc
fffffffa
fffffff3
0000000f
fffffff3
ffffffec
00000000
0000001e
0000000c
0000000f
0000000c
00000014
00000008
00000003
fffffffd
00000005
fffffff9
fffffff2
0000000c
00000017
00000018
00000028
00000017
00000003
ffffffff
00000001
fffffff5
fffffff4
ffffffe5
fffffff0
0000000e
0000001c
0000000a
ffffffe5
0000000f
00000023
0000000a
0000000e
00000004
0000000f
00000010
00000006
fffffffe
00000007
fffffff3
ffffffe8
ffffffeb
0000000e
00000002
00000009
00000004
ffffffff
ffffffff
fffffff2
ffffffe8
ffffffe9
ffffffe3
ffffffd6
0000000b
fffffffe
fffffffc
00000010
00000033
00000026
00000000
fffffff7
ffffffec
fffffff8
00000004
0000000a
00000013
00000007
fffffff8
fffffff5
fffffff2
ffffffed
fffffffa
00000006
fffffff6
00000007
ffffffeb
fffffff7
ffffffed
fffffff2
ffffffd7
ffffffe8
0000000d
fffffff6
fffffff5
fffffffc
00000035
00000011
00000001
00000002
ffffffeb
00000000
0000000d
00000008
00000010
0000000c
fffffffe
ffffffed
ffffffe0
ffffffeb
fffffff2
ffffffed
ffffffeb
fffffff2
ffffffe4
fffffffb
fffffff1
ffffffe3
ffffffd8
ffffffe3
00000005
fffffff9
fffffff5
00000000
00000030
00000027
00000009
fffffffc
fffffff5
00000010
fffffffe
00000007
0000001c
00000012
00000011
fffffff5
fffffff1
ffffffe9
ffffffda
ffffffd7
fffffff2
ffffffe9
fffffff2
0000000a
fffffff4
ffffffdc
ffffffe0
ffffffe8
fffffffb
fffffffc
00000004
0000000c
00000014
fffffff8
fffffff8
ffffffec
fffffffb
00000011
00000000
00000000
00000009
0000000d
ffffffdd
ffffffdf
ffffffef
ffffffeb
fffffff0
ffffffde
ffffffe5
ffffffea
fffffffc
fffffff3
fffffff0
ffffffe0
fffffff1
00000014
0000000c
00000001
00000003
00000002
00000007
00000000
fffffff1
ffffffd6
ffffffea
ffffffe6
ffffffd3
ffffffd5
ffffffd8
ffffffcd
ffffffcc
ffffffd8
ffffffd6
ffffffd0
ffffffd2
ffffffcb
ffffffd1
ffffffd3
fffffffb
fffffff7
ffffffed
00000006
ffffffe6
00000002
0000000f
00000001
fffffff6
fffffffa
fffffffb
ffffffe8
ffffffec
ffffffd5
ffffffce
ffffffba
ffffffca
ffffffc2
ffffffd1
ffffffcf
ffffffc0
ffffffbb
ffffffab
ffffffe9
ffffffc0
ffffffc6
ffffffd3
ffffffcc
ffffffc9
fffffff3
ffffffe3
fffffff0
fffffff4
ffffffff
0000000b
0000000c
fffffff5
fffffffe
fffffff6
00000007
fffffff8
00000007
fffffff2
ffffffee
fffffff6
ffffffe6
ffffffe0
ffffffda
ffffffd9
ffffffda
ffffffc9
ffffffd6
ffffffe4
fffffff9
fffffff2
ffffffee
fffffffd
00000000
fffffffa
00000004
fffffff6
fffffffd
fffffff9
fffffffb
00000332
00000000
00000000
00000000
00000000
00000000
00000000
00000000
00000000
00000000
00000000
00000000
00000000
00000000
00000000
00000000
00000000
00000000
00000000
00000000
00000000
00000000
00000000
00000000
00000000
00000000
00000000
00000000
00000000
00000000
00000000
00000000
00000000
00000000
00000000
00000000
00000000
00000000
00000000
00000000
00000000
00000000
00000000
00000000
00000000
00000000
00000000
00000000
00000000
00000000
00000000
00000000
00000000
00000000
00000000
00000000
00000000
00000000
00000000
00000000
00000000
00000000
00000000
00000000
00000000
00000000
00000000
00000000
00000000
00000000
00000000
00000000
00000000
00000000
00000000
00000000
00000000
00000000
00000000
00000000
00000000
00000000
00000000
00000000
00000000
00000000
00000000
00000000
00000000
00000000
00000000
00000000
00000000
00000000
00000000
00000000
00000000
00000000
00000000
00000000
00000000
00000000
00000000
00000000
00000000
00000000
00000000
00000000
00000000
00000000
00000000
00000000
00000000
00000000
00000000
00000000
00000000
00000000
00000000
00000000
00000000
00000000
00000000
00000000
00000000
00000000
00000000
00000000
00000000
00000000
00000000
00000000
00000000
00000000
00000000
00000000
00000000
00000000
00000000
00000000
00000000
00000000
00000000
00000000
00000000
00000000
00000000
00000000
00000000
00000000
00000000
00000000
00000000
00000000
00000000
00000000
00000000
00000000
00000000
00000000
00000000
00000000
00000000
00000000
00000000
00000000
00000000
00000000
00000000
00000000
00000000
00000000
00000000
00000000
00000000
00000000
00000000
00000000
00000000
00000000
00000000
00000000
00000000
00000000
00000000
00000000
00000000
00000000
00000000
00000000
00000000
00000000
00000000
00000000
00000000
00000000
00000000
00000000
00000000
00000000
00000000
00000000
00000000
00000000
00000000
00000000
00000000
00000000
00000000
00000000
00000000
00000000
00000000
00000000
00000000
00000000
00000000
00000000
00000000
00000000
00000000
00000000
00000000
00000000
00000000
00000000
00000000
00000000
00000000
00000000
00000000
00000000
00000000
00000000
00000000
00000000
00000000
00000000
00000000
00000000
