0000000a
fffffff7
0000000b
fffffff8
0000000c
fffffffc
fffffffa
00000000
fffffff5
fffffffb
fffffffd
00000000
ffffffff
00000006
fffffffe
fffffffc
fffffff4
00000009
00000009
fffffff7
fffffff6
fffffffd
00000006
fffffffe
fffffffa
fffffff4
00000005
00000008
fffffffd
fffffffa
fffffff4
fffffffc
00000006
fffffffd
0000000a
0000000a
00000003
00000003
fffffff8
0000000a
00000007
fffffff1
00000018
0000000c
ffffffff
ffffffe5
00000008
00000012
00000009
0000000c
0000000c
0000000d
fffffff4
fffffffc
fffffff6
fffffffb
fffffff5
00000005
00000000
fffffff9
00000005
00000010
00000009
00000004
00000008
0000001f
00000011
0000000d
00000026
00000037
00000044
00000037
00000011
00000000
00000007
00000011
0000000d
0000001c
0000001f
00000017
00000014
00000012
00000005
0000000c
fffffff6
fffffff5
00000021
00000004
00000004
ffffffe1
ffffffee
ffffffdf
ffffffe2
00000010
fffffff7
ffffffef
fffffff2
00000005
fffffffb
fffffffe
0000000a
00000005
fffffffe
00000012
00000003
00000005
00000002
00000009
0000001c
fffffffb
ffffffef
00000003
fffffff3
00000004
00000007
ffffffe3
fffffff8
fffffffa
fffffff2
ffffffe2
ffffffde
fffffff1
ffffffef
ffffffe9
00000003
ffffffef
fffffffe
fffffff7
fffffff9
00000003
fffffff5
00000001
0000000c
00000001
00000007
0000000c
fffffffe
ffffffe4
ffffffd1
fffffff1
00000008
0000000a
fffffffe
ffffffea
ffffffe3
fffffffd
fffffff3
fffffff6
00000004
fffffff8
ffffffed
fffffff1
fffffff8
fffffff6
fffffff8
fffffff6
fffffff1
fffffff5
fffffffa
00000002
0000000e
00000018
00000009
0000001e
00000025
fffffff3
ffffffe8
fffffff4
00000008
fffffff6
fffffffd
ffffffe4
ffffffc8
ffffffd4
ffffffdf
fffffff6
ffffffe5
fffffffa
fffffff0
fffffffc
00000008
fffffffe
ffffffff
0000000c
00000017
0000000d
00000011
0000001a
00000024
00000016
0000000e
00000014
0000000e
0000000e
00000011
00000004
0000000c
fffffff7
ffffffef
ffffffd9
ffffffc5
ffffffbb
ffffffc8
fffffff5
ffffffee
fffffffd
fffffff3
fffffffe
fffffffd
00000010
00000010
0000000b
0000000c
0000000d
00000011
0000000e
0000001d
00000023
00000012
00000008
00000000
00000005
00000007
ffffffff
ffffffeb
fffffffa
00000004
ffffffd9
ffffffcd
ffffffca
ffffffde
fffffff0
00000000
fffffffb
fffffff4
0000000e
0000000e
00000009
00000015
00000006
fffffff3
00000007
fffffffb
00000009
00000000
0000000f
00000011
00000018
0000001c
00000013
fffffff9
fffffff1
00000003
00000001
fffffff4
fffffff7
ffffffcf
ffffffc9
ffffffd9
fffffff2
ffffffe4
ffffffe5
fffffff7
00000001
0000000e
0000001d
00000018
00000000
ffffffff
ffffffe8
ffffffef
fffffff4
00000003
fffffffc
00000007
0000000f
00000019
0000001f
00000010
00000009
0000000d
0000000f
00000009
ffffffe1
ffffffd3
ffffffe0
ffffffe0
ffffffd3
ffffffed
fffffff3
fffffff8
00000014
00000015
0000001d
00000019
00000028
00000001
ffffffde
ffffffe1
ffffffe6
ffffffe6
00000004
ffffffea
00000004
00000002
00000028
0000000d
00000002
00000011
ffffffee
0000000d
ffffffef
ffffffeb
fffffff5
ffffffe5
ffffffeb
ffffffd6
ffffffe7
00000005
0000000e
0000001d
0000001d
00000011
0000001c
00000001
ffffffe3
ffffffda
ffffffdb
ffffffdf
fffffff1
ffffffe5
ffffffea
fffffff0
00000014
fffffff8
0000000a
00000007
00000004
00000021
00000004
00000006
fffffffe
ffffffe9
ffffffe4
ffffffdb
fffffff1
00000000
0000000b
00000012
fffffffc
0000001a
0000001a
0000000a
ffffffe7
ffffffe0
ffffffd2
ffffffe0
ffffffea
ffffffe0
ffffffd2
ffffffe5
00000016
fffffffb
00000024
00000016
00000013
00000017
00000017
00000003
ffffffe8
fffffff2
ffffffe1
ffffffe6
ffffffe9
fffffff7
00000003
fffffffe
00000008
0000001d
0000001d
0000001e
fffffff3
ffffffdb
ffffffe1
ffffffe7
ffffffec
ffffffd2
ffffffd2
ffffffed
00000011
0000001e
0000001b
ffffffec
00000007
00000016
00000015
00000011
fffffff0
fffffff0
ffffffe6
ffffffec
00000003
0000000d
ffffffee
ffffffee
00000005
0000001f
00000028
00000018
fffffff9
ffffffd4
fffffff7
ffffffd4
ffffffd3
ffffffe3
ffffffea
fffffff1
00000012
0000003d
0000000d
00000004
00000000
00000011
00000004
ffffffef
ffffffe3
fffffff8
ffffffff
0000000e
fffffffe
00000007
00000005
fffffffc
00000024
00000025
00000027
00000015
fffffff2
ffffffcf
ffffffd6
ffffffd4
ffffffcf
ffffffd8
ffffffe8
fffffffa
0000001c
00000034
00000024
0000000b
fffffffd
ffffffeb
ffffffe4
00000008
00000003
00000008
ffffffff
0000000f
00000000
0000000e
00000008
00000008
00000016
00000028
00000017
00000006
ffffffdd
ffffffc2
ffffffc8
ffffffd3
fffffff0
ffffffff
ffffffdc
ffffffea
00000032
00000048
00000012
fffffff6
fffffff7
fffffff2
fffffffe
0000000e
00000005
00000016
00000002
ffffffee
00000000
00000014
00000015
00000014
00000024
0000002a
00000008
ffffffd4
ffffffbb
ffffffdb
ffffffd6
fffffff8
fffffffd
00000006
fffffff1
0000001e
00000048
00000045
0000001a
0000000a
fffffff2
ffffffe4
0000000e
0000000a
00000007
fffffffa
0000000d
fffffff4
0000000e
0000000f
00000026
00000024
00000013
0000000c
ffffffec
ffffffc4
ffffffe1
ffffffed
fffffffc
0000000f
0000000b
00000018
0000000f
00000028
00000048
00000045
00000029
0000000b
00000005
ffffffea
fffffff8
00000009
ffffffee
fffffff3
00000002
ffffffeb
00000012
00000019
0000002c
0000001e
00000018
fffffff4
ffffffe8
ffffffe0
ffffffed
fffffff8
fffffffd
00000014
00000011
0000000c
00000021
00000023
00000051
00000036
00000011
00000004
fffffff0
ffffffe7
ffffffe5
fffffff5
ffffffe7
ffffffea
fffffffa
fffffffe
fffffffd
00000017
0000001e
0000001d
00000001
ffffffe3
fffffff8
00000000
00000016
fffffff8
00000011
00000014
0000000d
00000012
00000008
00000030
00000047
00000027
00000010
00000009
00000008
ffffffed
ffffffff
00000006
00000005
00000002
0000000c
0000000c
00000012
fffffffe
00000006
00000003
fffffffa
00000007
00000006
00000002
00000011
00000005
0000000a
0000001a
0000002a
0000001c
00000011
0000003f
00000013
00000003
ffffffff
0000001a
00000002
fffffff4
0000000c
0000001b
00000012
fffffffd
ffffffff
00000000
00000006
00000009
fffffffd
0000000a
fffffffd
00000009
fffffff8
00000007
00000006
0000000d
00000011
00000018
0000002e
fffffffe
00000006
0000001d
0000001b
ffffffeb
00000004
fffffff5
00000004
ffffffef
ffffffe7
fffffff4
fffffffb
00000002
ffffffed
ffffffe5
fffffffb
fffffff3
fffffff7
fffffffc
00000006
fffffffa
fffffffa
fffffffc
ffffffef
fffffff7
00000001
0000000d
00000017
00000001
fffffff9
00000002
00000002
00000012
fffffffc
fffffffc
fffffffe
ffffffee
ffffffd0
ffffffe6
00000001
ffffffec
00000005
fffffffa
fffffff8
fffffff4
00000003
00000000
fffffff4
ffffffe7
ffffffec
ffffffe5
fffffff0
fffffff5
fffffffa
fffffff7
0000000b
fffffffe
fffffffa
0000000e
0000000e
0000000c
fffffff6
00000004
fffffffe
00000004
00000024
00000005
fffffffc
ffffffed
00000008
00000016
fffffffe
fffffffb
00000010
fffffff6
fffffff3
00000010
ffffffec
ffffffdf
ffffffe6
ffffffe1
ffffffd3
ffffffee
fffffffc
00000006
00000014
00000006
0000000e
0000000e
00000002
0000000c
0000000c
00000005
00000017
00000006
0000000b
00000006
00000023
0000001d
0000002c
00000005
fffffff7
00000009
fffffffc
0000000a
0000000d
fffffffe
fffffff0
fffffff5
fffffffe
0000000b
00000019
00000005
00000001
00000001
fffffffd
fffffffb
fffffff5
fffffffa
fffffff8
0000000c
ffffffff
0000000d
00000000
00000011
00000013
00000008
0000002b
0000001e
0000000a
0000000d
00000001
00000021
00000015
00000006
0000001c
00000021
00000011
00000029
0000001c
00000014
fffffffa
00000001
00000001
00000003
fffffffd
000029a7
00000000
00000000
00000000
00000000
00000000
00000000
00000000
00000000
00000000
00000000
00000000
00000000
00000000
00000000
00000000
00000000
00000000
00000000
00000000
00000000
00000000
00000000
00000000
00000000
00000000
00000000
00000000
00000000
00000000
00000000
00000000
00000000
00000000
00000000
00000000
00000000
00000000
00000000
00000000
00000000
00000000
00000000
00000000
00000000
00000000
00000000
00000000
00000000
00000000
00000000
00000000
00000000
00000000
00000000
00000000
00000000
00000000
00000000
00000000
00000000
00000000
00000000
00000000
00000000
00000000
00000000
00000000
00000000
00000000
00000000
00000000
00000000
00000000
00000000
00000000
00000000
00000000
00000000
00000000
00000000
00000000
00000000
00000000
00000000
00000000
00000000
00000000
00000000
00000000
00000000
00000000
00000000
00000000
00000000
00000000
00000000
00000000
00000000
00000000
00000000
00000000
00000000
00000000
00000000
00000000
00000000
00000000
00000000
00000000
00000000
00000000
00000000
00000000
00000000
00000000
00000000
00000000
00000000
00000000
00000000
00000000
00000000
00000000
00000000
00000000
00000000
00000000
00000000
00000000
00000000
00000000
00000000
00000000
00000000
00000000
00000000
00000000
00000000
00000000
00000000
00000000
00000000
00000000
00000000
00000000
00000000
00000000
00000000
00000000
00000000
00000000
00000000
00000000
00000000
00000000
00000000
00000000
00000000
00000000
00000000
00000000
00000000
00000000
00000000
00000000
00000000
00000000
00000000
00000000
00000000
00000000
00000000
00000000
00000000
00000000
00000000
00000000
00000000
00000000
00000000
00000000
00000000
00000000
00000000
00000000
00000000
00000000
00000000
00000000
00000000
00000000
00000000
00000000
00000000
00000000
00000000
00000000
00000000
00000000
00000000
00000000
00000000
00000000
00000000
00000000
00000000
00000000
00000000
00000000
00000000
00000000
00000000
00000000
00000000
00000000
00000000
00000000
00000000
00000000
00000000
00000000
00000000
00000000
00000000
00000000
00000000
00000000
00000000
00000000
00000000
00000000
00000000
00000000
00000000
00000000
00000000
00000000
00000000
00000000
