0000000a
ffffffff
0000000c
00000005
00000004
00000004
fffffff8
00000005
fffffffa
fffffffd
fffffffb
00000008
0000001a
0000000c
fffffff3
00000006
fffffffe
fffffff5
fffffff5
00000005
00000004
00000003
0000000b
00000001
fffffff6
fffffffb
0000000b
00000007
fffffffb
fffffffc
fffffffa
00000006
00000001
00000014
0000000b
0000000e
00000015
0000000c
00000029
00000033
0000002d
0000001a
fffffffd
00000007
00000028
00000026
00000040
00000027
00000025
00000012
0000001d
0000001d
fffffff4
fffffffe
00000003
fffffff8
fffffffa
fffffffe
fffffffd
00000018
00000010
00000020
00000031
00000023
0000002c
00000009
00000020
0000003a
00000023
0000000e
00000010
fffffffd
0000000a
00000009
00000018
00000006
00000011
00000021
0000001f
00000032
0000000d
fffffff8
00000001
fffffff6
00000004
00000001
fffffff7
00000003
fffffff8
fffffffa
00000008
00000000
ffffffff
00000007
00000002
fffffffb
fffffffd
00000013
0000000d
00000006
00000008
0000000f
0000000e
00000004
fffffff7
00000010
00000006
00000025
00000013
ffffffff
00000010
fffffffc
00000002
00000006
fffffff6
fffffff2
00000014
00000002
fffffff8
fffffffc
00000001
00000001
00000002
fffffff4
fffffff8
fffffff8
ffffffef
fffffff0
00000005
00000004
ffffffe5
fffffff9
00000003
ffffffef
00000001
fffffff8
fffffffc
fffffff3
00000008
00000012
0000000c
fffffffa
00000014
ffffffe2
00000023
00000002
0000000a
00000003
00000029
0000001d
0000000e
00000003
00000011
00000008
fffffffd
00000001
fffffff3
fffffffb
ffffffe8
fffffff9
ffffffef
fffffff1
ffffffdf
ffffffe7
00000008
0000000b
ffffffff
00000013
00000005
ffffffef
00000001
00000013
0000001b
00000002
00000019
0000001e
0000001b
0000000d
00000012
00000000
00000010
fffffff8
fffffff8
00000002
00000005
00000010
fffffff7
00000005
fffffffe
fffffff4
ffffffea
ffffffe6
ffffffe3
00000003
fffffff1
00000007
0000000a
ffffffe9
00000028
0000001f
0000000b
ffffffea
00000015
0000000a
00000002
00000018
00000011
00000009
fffffffd
00000005
fffffff9
00000007
00000009
0000000d
00000014
00000001
fffffff8
00000005
ffffffeb
ffffffe1
00000001
fffffff1
fffffff7
00000008
ffffffff
0000001b
0000001a
0000000d
00000016
00000005
0000001b
0000000e
00000010
0000000f
00000012
00000008
00000005
ffffffef
fffffffb
00000004
00000007
fffffff8
00000006
00000016
00000002
fffffffc
ffffffe6
ffffffe7
ffffffe8
ffffffe4
00000000
fffffff1
00000013
0000001b
fffffffe
00000021
0000001e
00000018
00000017
0000000e
00000005
fffffff9
00000012
00000006
fffffffb
fffffff8
00000006
fffffffa
fffffff2
fffffffe
0000000f
0000000e
0000000b
fffffff8
ffffffee
ffffffe8
ffffffe7
ffffffd9
ffffffe9
00000003
00000008
00000007
0000001e
00000007
00000012
00000032
00000021
0000001c
0000000a
00000010
00000004
00000003
fffffff5
fffffffc
00000003
fffffffa
00000007
fffffff7
0000000b
00000017
00000007
0000000d
fffffffe
0000000b
ffffffea
ffffffb7
ffffffd3
0000000b
00000019
0000001b
00000032
00000017
00000017
00000013
0000001c
00000031
00000020
00000014
00000015
00000001
fffffffa
0000001a
00000016
00000008
fffffff8
0000000d
0000000e
00000005
00000015
00000021
0000001b
00000020
ffffffeb
ffffffc5
ffffffd6
00000006
00000013
00000022
00000029
0000001b
00000022
00000015
00000015
00000021
00000021
0000000c
fffffffd
0000000b
ffffffe2
fffffff2
00000013
fffffffd
0000000d
0000000e
00000015
00000005
00000008
0000001c
0000002b
00000043
00000029
fffffffe
ffffffd3
00000005
fffffff7
00000016
0000002d
0000001b
00000017
00000017
0000000d
fffffffe
0000000b
00000005
00000010
ffffffff
ffffffe3
00000002
fffffffe
00000016
0000000e
00000008
00000009
00000014
00000007
00000011
00000023
00000039
00000029
00000001
ffffffe1
ffffffef
ffffffe8
fffffffc
0000001a
0000000a
ffffffed
00000010
0000000d
0000000b
ffffffff
00000007
00000015
0000000a
00000003
00000001
fffffff9
ffffffff
00000004
00000003
00000022
0000001b
0000000f
0000001a
00000031
00000028
0000000e
0000000b
ffffffe5
fffffffb
ffffffec
fffffffe
ffffffe6
00000000
ffffffdf
fffffff0
fffffff7
00000000
00000000
fffffff8
00000011
00000013
fffffff9
00000004
00000007
00000019
00000002
0000000e
00000023
00000023
00000014
00000027
00000024
00000015
fffffffe
0000000a
ffffffc8
fffffff5
0000000b
ffffffe4
ffffffe9
ffffffd9
ffffffeb
ffffffed
00000002
00000016
00000011
00000011
00000015
00000011
fffffffe
fffffff2
0000000a
00000010
00000007
0000000f
fffffffd
fffffffb
00000008
0000000e
00000001
00000003
fffffff4
0000000b
ffffffe3
fffffffa
ffffffff
ffffffec
ffffffe8
fffffff4
ffffffe5
ffffffea
fffffff3
00000000
fffffff9
00000005
00000000
00000010
00000013
00000003
00000012
00000001
00000013
00000008
00000003
fffffffd
0000000a
00000004
0000000c
ffffffff
0000000c
0000002e
fffffffa
00000008
00000011
fffffffd
00000002
ffffffd0
ffffffed
ffffffdd
fffffff1
fffffffd
fffffff1
fffffffe
0000000a
0000000a
fffffff6
00000010
fffffffd
0000000b
fffffffc
ffffffff
fffffffa
00000003
00000006
fffffffb
00000001
00000004
fffffffd
00000013
fffffffb
ffffffed
00000002
0000000e
fffffffb
ffffffcd
fffffff6
ffffffde
fffffff3
fffffff5
fffffff9
fffffff4
ffffffff
fffffff8
0000000d
00000003
0000000b
0000000a
fffffff6
fffffffc
fffffff1
fffffff6
fffffff1
fffffffd
fffffff8
ffffffee
ffffffeb
ffffffcd
ffffffe4
fffffff2
00000004
00000012
00000000
ffffffe1
fffffff7
00000000
ffffffe9
fffffffa
ffffffea
fffffffc
00000013
0000000b
ffffffff
00000011
0000000b
00000009
fffffff4
ffffffe2
ffffffe2
fffffff0
fffffff3
fffffff4
ffffffe6
ffffffd6
ffffffed
ffffffe7
fffffff2
fffffff5
ffffffec
fffffffc
ffffffef
ffffffdf
fffffff6
fffffff5
fffffff1
00000001
fffffff9
0000000b
00000004
0000001c
00000023
0000002c
0000001f
0000000b
00000001
fffffff3
ffffffeb
ffffffde
ffffffdd
ffffffe2
ffffffdf
ffffffd8
ffffffd9
ffffffe5
00000000
00000005
fffffff3
ffffffee
fffffff9
ffffffd6
ffffffed
00000000
00000002
0000000e
00000004
00000007
00000011
00000007
00000028
00000023
00000006
0000000c
00000009
fffffff1
ffffffed
ffffffdb
ffffffde
ffffffdc
ffffffec
ffffffd4
ffffffdf
fffffff5
ffffffe8
fffffffd
fffffffc
fffffff4
ffffffe5
ffffffde
fffffff6
fffffff0
00000002
00000007
fffffffa
ffffffe9
ffffffe2
fffffffa
fffffffd
00000006
00000013
00000005
00000004
fffffff9
fffffff7
fffffff8
fffffff7
ffffffeb
fffffffe
ffffffe6
fffffff7
fffffff4
ffffffe5
0000000c
0000000a
fffffff4
fffffffa
ffffffe2
00000002
00000013
fffffff8
fffffff7
ffffffed
ffffffd7
ffffffdc
ffffffe7
00000005
fffffff2
ffffffe9
00000001
fffffff9
ffffffeb
fffffffd
fffffffb
fffffffc
fffffff3
ffffffdf
fffffffc
fffffff3
ffffffec
fffffff6
fffffffa
00000009
00000005
fffffffd
00000004
00000017
00000006
00000000
fffffffd
fffffffa
ffffffe8
fffffff4
00000001
fffffff4
fffffff8
00000014
0000000d
fffffffd
fffffff8
00000005
ffffffff
ffffffef
fffffff7
ffffffe7
ffffffe3
ffffffe4
fffffffc
fffffffe
00000001
0000000a
00000008
00000008
ffffffff
ffffffe9
00000000
fffffff6
00000026
00000030
00000035
00000013
00000010
00000011
00000034
00000032
00000021
0000001f
00000016
0000001c
00000018
00000014
0000001d
00000024
0000001e
0000000c
00000004
00000006
0000000c
00000009
0000000a
fffffffd
fffffff9
0000000b
00000014
00000026
00000019
0000001a
0000002e
00000022
00000008
00000017
00000023
0000004d
00000029
00000021
0000004f
0000002f
00000030
0000001b
00000029
00000018
00000016
fffffff7
00000000
00000002
fffffffe
ffffee2d
00000000
00000000
00000000
00000000
00000000
00000000
00000000
00000000
00000000
00000000
00000000
00000000
00000000
00000000
00000000
00000000
00000000
00000000
00000000
00000000
00000000
00000000
00000000
00000000
00000000
00000000
00000000
00000000
00000000
00000000
00000000
00000000
00000000
00000000
00000000
00000000
00000000
00000000
00000000
00000000
00000000
00000000
00000000
00000000
00000000
00000000
00000000
00000000
00000000
00000000
00000000
00000000
00000000
00000000
00000000
00000000
00000000
00000000
00000000
00000000
00000000
00000000
00000000
00000000
00000000
00000000
00000000
00000000
00000000
00000000
00000000
00000000
00000000
00000000
00000000
00000000
00000000
00000000
00000000
00000000
00000000
00000000
00000000
00000000
00000000
00000000
00000000
00000000
00000000
00000000
00000000
00000000
00000000
00000000
00000000
00000000
00000000
00000000
00000000
00000000
00000000
00000000
00000000
00000000
00000000
00000000
00000000
00000000
00000000
00000000
00000000
00000000
00000000
00000000
00000000
00000000
00000000
00000000
00000000
00000000
00000000
00000000
00000000
00000000
00000000
00000000
00000000
00000000
00000000
00000000
00000000
00000000
00000000
00000000
00000000
00000000
00000000
00000000
00000000
00000000
00000000
00000000
00000000
00000000
00000000
00000000
00000000
00000000
00000000
00000000
00000000
00000000
00000000
00000000
00000000
00000000
00000000
00000000
00000000
00000000
00000000
00000000
00000000
00000000
00000000
00000000
00000000
00000000
00000000
00000000
00000000
00000000
00000000
00000000
00000000
00000000
00000000
00000000
00000000
00000000
00000000
00000000
00000000
00000000
00000000
00000000
00000000
00000000
00000000
00000000
00000000
00000000
00000000
00000000
00000000
00000000
00000000
00000000
00000000
00000000
00000000
00000000
00000000
00000000
00000000
00000000
00000000
00000000
00000000
00000000
00000000
00000000
00000000
00000000
00000000
00000000
00000000
00000000
00000000
00000000
00000000
00000000
00000000
00000000
00000000
00000000
00000000
00000000
00000000
00000000
00000000
00000000
00000000
00000000
00000000
00000000
00000000
00000000
00000000
