fffffffd
00000004
fffffff8
00000008
fffffff4
ffffffff
00000004
0000000a
fffffff5
fffffff4
00000007
00000005
00000009
00000007
fffffffc
fffffffd
00000001
fffffff9
0000000a
00000004
fffffffa
00000006
fffffff9
0000000d
fffffff5
00000007
0000000b
0000000b
00000006
00000009
00000009
fffffff8
0000000b
00000003
0000000f
00000013
00000017
0000000e
00000017
00000022
00000010
00000022
ffffffff
00000017
0000001d
0000001a
0000000f
00000004
00000009
0000000a
00000013
00000000
fffffff9
fffffff5
00000000
fffffff5
ffffffff
00000004
fffffffa
fffffffd
0000000d
00000016
00000014
0000002c
00000025
0000002a
0000003f
0000002d
00000032
fffffffd
0000000a
ffffffe1
fffffffc
00000006
ffffffff
00000003
00000002
00000005
0000001d
00000019
0000000f
0000000a
00000007
00000009
0000000b
fffffffc
fffffff7
fffffff9
fffffffa
00000016
0000001b
00000023
00000040
00000027
00000029
00000039
00000027
00000024
00000016
00000010
fffffff8
00000001
fffffff9
00000003
ffffffff
ffffffef
fffffffc
ffffffde
00000010
fffffffc
fffffff0
fffffffe
00000006
fffffff9
00000004
0000001f
00000006
00000011
00000020
00000013
0000001f
00000026
00000028
00000021
00000022
0000000a
00000010
00000004
fffffff4
00000006
0000000d
fffffff9
00000002
00000001
fffffff5
ffffffed
ffffffe9
fffffff2
00000012
00000017
0000000b
00000008
0000001d
00000021
00000014
ffffffe1
fffffff7
00000008
00000000
fffffff5
00000001
0000000f
fffffffc
00000008
fffffffe
00000012
00000007
00000018
0000001d
0000000f
00000017
00000003
fffffff1
ffffffec
ffffffed
fffffffb
0000000a
fffffffe
00000008
00000017
ffffffec
0000000f
00000011
ffffffe5
00000003
00000002
fffffffc
00000009
00000008
fffffffe
fffffff7
00000014
00000007
00000019
0000001f
00000011
0000001a
00000011
0000000e
0000000d
00000001
00000007
fffffff9
fffffffa
fffffffc
0000000b
fffffff2
0000000a
fffffff0
ffffffff
00000015
00000001
fffffff8
fffffff2
0000000c
00000008
00000002
0000000e
0000000b
00000016
00000027
00000017
0000000d
00000008
00000011
00000002
fffffff8
fffffffc
00000009
00000003
0000000f
ffffffe4
0000000c
fffffff2
fffffff9
00000003
ffffffe4
fffffffd
0000000d
fffffff9
00000006
fffffff3
00000001
00000003
0000000a
00000003
00000010
00000011
00000019
00000002
00000019
ffffffff
00000001
fffffff9
00000004
ffffffff
fffffff3
00000002
ffffffe8
ffffffef
ffffffe5
fffffff3
fffffff9
fffffffe
fffffff6
fffffff4
00000016
0000000c
fffffff4
00000001
00000004
0000000b
fffffff9
00000002
fffffffd
00000002
fffffff9
00000002
fffffff4
fffffff2
fffffff2
00000002
fffffff3
fffffff7
fffffff6
00000000
fffffff0
00000004
fffffff1
fffffff3
fffffff2
ffffffeb
fffffff6
0000000a
0000000a
0000000a
00000012
00000013
00000009
fffffffb
ffffffff
fffffffc
fffffffb
fffffff4
fffffffd
ffffffe1
ffffffe7
fffffff9
0000000d
fffffffb
00000009
fffffff7
00000003
00000009
0000000b
fffffff7
fffffff3
ffffffeb
ffffffe6
ffffffe7
ffffffea
00000014
00000004
fffffff9
00000004
00000003
fffffff7
fffffffd
fffffff7
00000004
00000000
00000011
ffffffea
ffffffe3
ffffffe9
fffffffa
fffffff7
fffffff9
fffffff0
fffffffa
fffffff4
fffffff1
00000010
fffffff0
ffffffe8
fffffff2
fffffffa
fffffff0
fffffff2
00000015
fffffff5
ffffffe6
fffffff9
ffffffed
00000006
0000000c
00000006
0000000a
ffffffff
fffffffe
fffffff0
ffffffe1
fffffff1
fffffff6
00000001
fffffffb
fffffff9
fffffff3
ffffffd9
fffffffa
00000007
fffffffb
ffffffea
fffffff3
00000002
fffffffb
ffffffe4
00000019
ffffffe1
ffffffee
fffffff8
fffffffd
fffffff6
0000000f
0000000b
fffffff2
00000004
00000006
00000000
ffffffed
fffffff1
ffffffef
fffffff5
fffffff9
ffffffef
ffffffec
ffffffeb
00000007
0000000b
ffffffee
fffffffa
ffffffff
00000005
00000002
ffffffe1
00000013
ffffffdf
ffffffe6
fffffff8
00000008
fffffffa
00000001
fffffff8
fffffff9
00000005
ffffffff
fffffffd
fffffff7
fffffff5
fffffff1
fffffff6
ffffffed
fffffffe
00000006
fffffff9
00000001
00000000
00000006
00000005
00000002
00000011
00000002
ffffffe4
ffffffee
fffffff3
fffffff1
fffffff3
fffffff3
ffffffee
ffffffef
00000006
00000009
fffffff5
00000002
fffffffc
fffffff2
ffffffe3
ffffffeb
ffffffdf
fffffff5
fffffffd
00000008
fffffffc
0000000b
00000025
fffffffe
fffffff9
0000000e
fffffffb
00000006
fffffffc
00000005
fffffffa
ffffffed
ffffffe2
ffffffe4
fffffff2
0000000e
00000010
0000000f
0000000c
0000000b
ffffffff
ffffffe3
ffffffe3
ffffffdc
fffffff0
fffffff1
00000003
00000014
00000020
00000011
0000001a
0000000c
fffffff9
00000010
fffffffb
00000006
fffffff9
00000009
fffffff6
ffffffea
ffffffed
fffffff1
fffffffd
00000006
0000001c
00000010
00000000
fffffff6
ffffffe1
ffffffd7
ffffffcf
ffffffed
fffffff5
00000012
00000007
0000000e
00000018
00000003
fffffff0
fffffffe
ffffffe7
00000022
fffffff8
00000003
fffffff2
00000000
fffffff4
ffffffe4
ffffffe6
fffffff4
fffffffa
ffffffec
0000000a
fffffffb
fffffff0
ffffffd1
ffffffc8
ffffffde
ffffffe5
fffffffa
0000000b
0000000b
0000000e
00000019
00000016
00000006
fffffffe
00000013
fffffff7
00000016
fffffffd
fffffff9
fffffffe
fffffff6
fffffff0
fffffff5
ffffffeb
fffffff8
fffffff8
fffffffb
0000000b
ffffffe7
ffffffee
ffffffea
ffffffdb
ffffffee
fffffffd
0000001c
0000000c
0000000d
0000001b
00000013
00000022
00000011
00000004
00000005
00000016
00000001
00000001
00000014
fffffff7
00000007
fffffffc
0000000f
fffffffb
00000004
0000000b
00000018
00000000
fffffffe
00000009
00000005
0000000f
0000000f
00000013
0000001b
00000023
0000001b
0000001a
0000001b
0000000b
00000018
ffffffee
0000000e
fffffffa
fffffff5
fffffff2
00000014
0000002c
00000009
00000000
ffffffeb
fffffff1
0000000b
0000000b
00000007
00000004
00000011
00000017
00000032
0000002a
00000025
00000015
0000000e
0000000e
00000025
0000000c
00000005
00000022
00000024
00000009
00000008
00000017
00000007
fffffff4
00000000
0000001c
00000022
fffffff7
fffffffe
fffffffd
00000008
00000004
0000000c
00000003
0000002b
0000002b
00000033
0000002d
00000025
0000001e
00000025
0000000b
00000004
00000018
fffffffd
00000015
00000013
fffffffa
00000003
ffffffe2
0000000f
fffffffb
00000005
0000000f
0000002f
00000007
00000017
0000001f
00000020
0000001f
0000001e
00000017
00000025
00000013
0000001e
0000001c
00000019
0000001b
00000018
0000000f
00000013
00000000
00000011
0000001e
00000023
0000001a
0000000e
ffffffe2
00000001
fffffffc
fffffffe
fffffff8
0000001d
00000016
fffffff9
00000024
0000001f
0000001c
0000001d
ffffffff
00000008
00000014
0000001b
00000028
00000024
00000022
0000002c
00000020
00000007
ffffffed
00000002
0000001a
0000000b
00000036
00000020
0000000b
0000000b
0000000a
00000007
00000015
fffffff4
fffffff1
00000002
00000027
00000016
0000000f
00000014
00000013
00000014
00000016
00000019
0000000f
00000011
00000019
00000014
0000000e
00000016
0000000d
00000001
00000014
00000017
00000033
00000007
fffffffe
fffffff8
00000007
00000007
fffffff4
fffffffd
fffffff7
0000000e
fffffffb
fffffff2
ffffffdc
ffffffef
fffffffa
00000013
00000019
0000001d
00000000
fffffff6
00000007
fffffffa
00000008
fffffff1
00000003
00000004
ffffffed
00000002
00000014
fffffffb
00000006
fffffffc
0000000b
0000000d
00000006
00000005
fffffff7
00000007
fffffff4
fffffffc
ffffffec
fffffff0
fffffffa
fffffff8
fffffff4
ffffffe4
ffffffd9
ffffffcf
ffffffea
ffffffe4
fffffff0
ffffffeb
00000002
fffffff5
ffffffef
00000006
0000000c
fffffffa
00000001
00000002
ffffdff3
00000000
00000000
00000000
00000000
00000000
00000000
00000000
00000000
00000000
00000000
00000000
00000000
00000000
00000000
00000000
00000000
00000000
00000000
00000000
00000000
00000000
00000000
00000000
00000000
00000000
00000000
00000000
00000000
00000000
00000000
00000000
00000000
00000000
00000000
00000000
00000000
00000000
00000000
00000000
00000000
00000000
00000000
00000000
00000000
00000000
00000000
00000000
00000000
00000000
00000000
00000000
00000000
00000000
00000000
00000000
00000000
00000000
00000000
00000000
00000000
00000000
00000000
00000000
00000000
00000000
00000000
00000000
00000000
00000000
00000000
00000000
00000000
00000000
00000000
00000000
00000000
00000000
00000000
00000000
00000000
00000000
00000000
00000000
00000000
00000000
00000000
00000000
00000000
00000000
00000000
00000000
00000000
00000000
00000000
00000000
00000000
00000000
00000000
00000000
00000000
00000000
00000000
00000000
00000000
00000000
00000000
00000000
00000000
00000000
00000000
00000000
00000000
00000000
00000000
00000000
00000000
00000000
00000000
00000000
00000000
00000000
00000000
00000000
00000000
00000000
00000000
00000000
00000000
00000000
00000000
00000000
00000000
00000000
00000000
00000000
00000000
00000000
00000000
00000000
00000000
00000000
00000000
00000000
00000000
00000000
00000000
00000000
00000000
00000000
00000000
00000000
00000000
00000000
00000000
00000000
00000000
00000000
00000000
00000000
00000000
00000000
00000000
00000000
00000000
00000000
00000000
00000000
00000000
00000000
00000000
00000000
00000000
00000000
00000000
00000000
00000000
00000000
00000000
00000000
00000000
00000000
00000000
00000000
00000000
00000000
00000000
00000000
00000000
00000000
00000000
00000000
00000000
00000000
00000000
00000000
00000000
00000000
00000000
00000000
00000000
00000000
00000000
00000000
00000000
00000000
00000000
00000000
00000000
00000000
00000000
00000000
00000000
00000000
00000000
00000000
00000000
00000000
00000000
00000000
00000000
00000000
00000000
00000000
00000000
00000000
00000000
00000000
00000000
00000000
00000000
00000000
00000000
00000000
00000000
00000000
00000000
00000000
00000000
00000000
