ffffffff
fffffff9
fffffff7
fffffff9
fffffff5
00000007
ffffffff
fffffffe
0000000c
0000000b
00000005
0000000b
fffffffa
ffffffff
00000006
0000000a
00000001
fffffff4
fffffff5
fffffff4
00000002
00000007
00000005
0000000a
0000000b
00000000
ffffffff
ffffffff
0000000c
00000005
00000007
00000000
fffffff6
00000002
0000000d
fffffffe
00000006
00000002
0000000a
fffffffc
00000003
00000012
00000018
00000005
0000000c
00000012
0000000f
fffffff9
fffffff6
fffffff0
00000003
00000007
fffffff9
00000003
fffffff9
0000000a
00000003
00000009
00000009
00000002
fffffffe
00000000
ffffffff
00000008
00000001
00000010
00000001
00000003
00000029
0000002f
0000003a
0000001c
00000012
00000003
fffffffa
0000000b
fffffff6
ffffffff
00000001
00000005
00000007
00000000
ffffffff
00000007
fffffffc
fffffff9
00000007
fffffffc
fffffffa
0000000a
00000001
0000001b
00000013
fffffff6
fffffff2
00000001
ffffffed
00000000
0000000f
00000010
fffffffb
fffffffa
ffffffdc
fffffff0
fffffff2
fffffff4
fffffff8
fffffffa
fffffff2
00000014
fffffff7
fffffffc
00000000
fffffff8
0000000b
0000000f
00000026
0000001a
00000010
fffffffd
0000000e
00000002
00000001
fffffffd
fffffff8
0000000b
fffffff4
ffffffe2
ffffffef
fffffffb
fffffff5
0000000a
fffffff6
fffffffe
fffffffc
fffffff0
fffffff8
00000015
00000010
00000015
fffffffd
0000000b
00000018
0000000a
00000024
00000014
0000001c
0000000e
0000002a
00000019
0000000f
fffffff7
00000000
00000003
ffffffee
ffffffe9
ffffffe8
ffffffef
fffffffe
00000008
00000008
00000002
fffffffd
0000000a
00000004
00000008
0000001c
0000000c
fffffffe
0000000f
00000020
0000002c
00000035
00000023
00000018
00000019
00000018
00000012
00000001
fffffff9
fffffff5
fffffffb
ffffffeb
ffffffe3
ffffffef
ffffffee
fffffff8
0000001b
00000015
00000013
00000007
fffffffb
ffffffea
fffffff3
fffffffc
0000001a
0000000c
0000001d
0000002e
00000036
0000003f
0000000f
00000012
00000018
00000013
0000000b
ffffffee
fffffffd
fffffffb
00000005
fffffffc
ffffffee
ffffffea
ffffffe9
0000000b
0000000f
0000002d
00000012
00000011
ffffffff
ffffffeb
fffffff0
0000000c
00000008
00000009
0000001f
0000001d
0000002a
00000020
00000017
00000018
00000014
fffffffc
0000000f
fffffffc
00000005
00000014
00000022
0000000a
fffffff6
ffffffe0
ffffffee
00000003
0000001e
00000023
0000001e
00000008
fffffff6
ffffffde
ffffffea
00000008
fffffff8
00000007
0000002a
0000002f
0000001b
0000000e
0000000a
00000011
00000008
fffffff5
fffffff2
fffffffb
00000001
0000000f
0000000b
fffffffd
ffffffe0
ffffffdd
fffffffc
0000000b
00000019
00000028
00000011
00000006
ffffffdb
ffffffe1
ffffffec
ffffffef
fffffffc
00000018
00000020
00000032
00000006
00000006
fffffffb
ffffffec
fffffffa
fffffff6
fffffff0
fffffffe
ffffffff
ffffffec
fffffff4
ffffffde
ffffffdf
ffffffe5
0000000a
00000024
00000024
00000025
00000017
00000005
ffffffe0
ffffffd1
ffffffd8
ffffffd3
0000000c
00000009
00000019
00000025
0000000e
00000009
fffffffc
fffffffe
fffffffb
fffffff2
fffffff6
00000006
00000001
fffffff5
ffffffed
ffffffe2
ffffffe8
fffffff1
0000000e
0000002c
00000030
00000032
00000008
00000002
ffffffe4
ffffffc4
ffffffd0
ffffffd6
00000013
00000008
0000000c
00000016
0000001b
fffffff8
fffffff3
fffffff4
ffffffee
fffffff2
fffffff2
fffffffb
fffffff9
fffffffc
ffffffeb
ffffffdb
ffffffee
0000001c
00000021
00000020
0000001d
00000018
00000006
ffffffe2
ffffffdb
fffffff5
ffffffdf
ffffffdf
00000015
fffffff8
00000011
0000002c
00000004
ffffffe7
00000002
fffffffd
fffffff5
ffffffff
00000007
fffffff8
ffffffff
fffffff7
ffffffe7
fffffff9
00000007
0000001b
0000001c
00000019
00000007
fffffff4
ffffffe3
ffffffe0
00000005
00000004
00000014
fffffffe
0000000c
fffffffe
00000006
00000030
0000000c
fffffff8
ffffffec
fffffff7
fffffffa
fffffff7
fffffff6
fffffffd
00000007
fffffff9
ffffffe8
00000003
0000001d
0000000b
00000017
00000017
fffffffb
ffffffe2
ffffffde
ffffffee
00000011
0000003a
00000018
0000000a
0000000c
00000010
0000000e
00000029
ffffffee
fffffffc
fffffff9
ffffffe9
ffffffec
fffffffc
ffffffee
fffffff7
ffffffff
fffffff9
fffffffc
00000017
00000019
0000000a
00000016
00000004
fffffff7
fffffffa
ffffffeb
00000001
00000003
0000000f
0000001c
0000001a
00000013
00000009
0000000f
00000017
00000000
fffffff6
fffffff8
fffffff1
00000000
ffffffef
fffffff1
ffffffed
fffffff2
fffffff4
0000000b
0000000a
00000017
00000004
00000005
00000002
00000003
fffffff9
00000010
ffffffed
00000000
00000005
0000000f
00000012
00000001
ffffffff
00000014
00000036
00000001
0000001b
fffffff0
ffffffef
ffffffec
fffffffd
fffffff6
ffffffeb
00000007
0000000b
fffffffb
0000000d
00000001
00000000
fffffff7
fffffff0
fffffffe
00000001
0000000d
fffffffa
fffffff3
00000000
fffffffa
00000015
00000005
00000005
00000016
00000039
0000000c
0000000c
fffffffc
ffffffe5
ffffffee
fffffff9
fffffff7
ffffffee
00000004
00000018
00000016
00000004
fffffff8
0000000d
00000004
00000000
00000005
0000000a
fffffff9
fffffff0
fffffff5
fffffff3
00000014
00000012
00000000
00000009
0000001d
00000004
00000003
0000000e
00000004
fffffffe
00000000
00000000
0000000a
00000008
fffffffb
0000000c
0000000d
00000009
00000013
00000000
00000007
fffffff2
fffffffa
fffffffc
00000001
ffffffe3
ffffffe5
fffffff7
fffffff9
00000012
00000006
ffffffff
00000009
fffffffe
00000012
00000008
fffffff4
fffffffc
fffffffe
ffffffef
ffffffef
fffffffb
fffffffb
0000000a
00000004
0000001d
00000007
fffffffd
fffffffc
ffffffef
00000000
fffffffd
00000000
ffffffd6
ffffffea
0000000c
ffffffee
00000011
00000001
fffffff7
00000008
00000010
00000014
00000003
ffffffe5
fffffff6
00000001
fffffff9
fffffff9
00000000
00000006
ffffffff
00000002
0000000a
0000000a
fffffffa
ffffffed
fffffff1
ffffffff
fffffff8
ffffffdc
fffffff1
00000008
00000010
fffffffb
0000000c
fffffff8
00000001
fffffffd
00000011
fffffff8
fffffff9
fffffffb
0000000a
00000002
fffffffa
ffffffeb
fffffff3
fffffffe
fffffff7
00000006
0000000d
0000001c
00000006
00000005
fffffffe
00000011
00000000
ffffffef
ffffffee
00000002
00000007
00000009
00000017
00000009
fffffff7
fffffff7
0000000a
fffffff2
fffffffd
ffffffe9
fffffffd
00000004
ffffffee
fffffffc
00000001
0000000f
00000003
00000013
00000004
0000001a
00000006
fffffffa
00000009
fffffff7
ffffffe8
ffffffec
ffffffe9
00000004
00000007
00000019
0000000e
00000001
fffffff5
00000003
0000000c
00000031
00000015
00000006
0000001d
00000001
fffffffd
ffffffef
fffffff2
0000000c
00000005
00000001
00000004
00000008
00000005
ffffffe1
ffffffef
ffffffec
ffffffed
ffffffe0
ffffffeb
fffffff8
fffffff8
00000011
0000000f
00000007
fffffffe
fffffffe
ffffffe5
00000009
00000015
fffffff4
fffffffa
fffffffb
00000007
00000007
00000004
00000004
0000000a
00000003
00000016
0000000e
0000000e
fffffffc
ffffffe0
ffffffec
ffffffd7
ffffffda
ffffffe1
ffffffeb
fffffffb
00000000
00000010
fffffffa
00000006
00000001
00000001
ffffffe6
ffffffde
ffffffe1
fffffff3
0000000f
0000000f
fffffff1
fffffff1
ffffffee
fffffffd
fffffff8
fffffff4
fffffffa
00000000
fffffffb
ffffffe9
ffffffe1
ffffffe4
ffffffd8
ffffffe8
00000000
ffffffec
00000005
0000000b
0000000c
fffffff5
00000000
00000001
fffffffc
00000008
0000000b
0000000e
fffffffb
0000000b
00000003
00000012
fffffffa
00000010
0000002a
ffffffec
fffffff1
00000010
0000002c
00000006
00000003
fffffff0
fffffff7
fffffffa
0000000d
fffffffb
00000003
00000008
00000004
ffffe7a9
00000000
00000000
00000000
00000000
00000000
00000000
00000000
00000000
00000000
00000000
00000000
00000000
00000000
00000000
7fffffff
00000000
00000000
00000000
00000000
00000000
00000000
00000000
00000000
00000000
00000000
00000000
00000000
00000000
00000000
00000000
00000000
00000000
00000000
00000000
00000000
00000000
00000000
00000000
00000000
00000000
00000000
00000000
00000000
00000000
00000000
00000000
00000000
00000000
00000000
00000000
00000000
00000000
00000000
00000000
00000000
00000000
00000000
00000000
00000000
00000000
00000000
00000000
00000000
00000000
00000000
00000000
00000000
00000000
00000000
00000000
00000000
00000000
00000000
00000000
00000000
00000000
00000000
00000000
00000000
00000000
00000000
00000000
00000000
00000000
00000000
00000000
00000000
00000000
00000000
00000000
00000000
00000000
00000000
00000000
00000000
00000000
00000000
00000000
00000000
00000000
00000000
00000000
00000000
00000000
00000000
00000000
00000000
00000000
00000000
00000000
00000000
00000000
00000000
00000000
00000000
00000000
00000000
00000000
00000000
00000000
00000000
00000000
00000000
00000000
00000000
00000000
00000000
00000000
00000000
00000000
00000000
00000000
00000000
00000000
00000000
00000000
00000000
00000000
00000000
00000000
00000000
00000000
00000000
00000000
00000000
00000000
00000000
00000000
00000000
00000000
00000000
00000000
00000000
00000000
00000000
00000000
00000000
00000000
00000000
00000000
00000000
00000000
00000000
00000000
00000000
00000000
00000000
00000000
00000000
00000000
00000000
00000000
00000000
00000000
00000000
00000000
00000000
00000000
00000000
00000000
00000000
00000000
00000000
00000000
00000000
00000000
00000000
00000000
00000000
00000000
00000000
00000000
00000000
00000000
00000000
00000000
00000000
00000000
00000000
00000000
00000000
00000000
00000000
00000000
00000000
00000000
00000000
00000000
00000000
00000000
00000000
00000000
00000000
00000000
00000000
00000000
00000000
00000000
00000000
00000000
00000000
00000000
00000000
00000000
00000000
00000000
00000000
00000000
00000000
00000000
00000000
00000000
00000000
00000000
00000000
00000000
00000000
00000000
00000000
