fffffffe
fffffff4
00000007
fffffff4
00000008
fffffffa
00000002
fffffffe
00000004
fffffff5
00000002
00000003
0000000d
0000000f
00000005
fffffff3
fffffff8
00000009
fffffff5
fffffff8
fffffff5
00000000
00000004
fffffff9
fffffffa
0000000b
fffffffb
00000009
00000000
00000001
fffffff5
00000001
fffffffc
00000005
00000019
00000016
00000011
0000000a
0000001d
0000002a
00000026
0000002b
ffffffff
0000002b
00000019
00000024
00000028
0000002b
00000024
00000018
00000011
00000007
0000000b
fffffff7
fffffff7
00000008
0000000a
fffffff4
00000000
0000000c
0000000d
00000029
0000002b
00000031
0000000c
fffffff6
0000000e
0000001c
00000019
00000026
0000001d
00000023
00000021
00000026
00000022
00000037
0000000f
00000004
0000001b
00000037
00000003
00000000
fffffff4
fffffff5
00000004
fffffff7
fffffff9
00000014
0000002b
fffffffb
00000004
00000006
0000000f
0000001b
00000020
00000007
00000010
00000023
0000001d
0000002a
00000015
0000000c
00000015
00000024
00000027
00000025
00000013
00000012
0000000a
0000000a
00000018
00000006
fffffff4
00000007
0000000b
0000000b
00000015
fffffff1
ffffffee
ffffffef
fffffff5
0000000a
00000002
00000008
fffffff8
fffffff8
00000009
0000001c
00000007
0000000d
00000017
00000010
00000009
00000012
0000001e
00000013
fffffff4
fffffff8
00000014
fffffff7
fffffffb
00000001
00000003
ffffffe2
ffffffde
00000007
fffffffa
fffffffc
0000000c
0000000a
0000000b
0000000b
00000004
00000004
00000002
ffffffff
00000005
00000005
00000000
00000005
fffffff7
fffffffc
00000006
0000000e
00000006
0000000e
0000000f
00000006
00000007
00000006
00000003
ffffffee
00000001
0000000f
fffffffd
00000008
00000006
00000007
00000004
00000004
00000000
00000012
0000000e
fffffff6
fffffffd
ffffffff
0000000d
00000008
00000003
0000000f
0000000f
ffffffef
00000015
00000011
00000007
fffffffa
fffffff5
00000005
00000001
ffffffe9
fffffff1
0000000d
0000000c
0000000b
00000003
00000012
0000000f
00000019
00000002
00000003
00000003
00000003
00000007
00000002
ffffffff
00000007
00000004
fffffff0
ffffffe8
fffffff8
0000000a
0000001d
fffffffd
fffffff0
00000001
0000000e
00000002
fffffff8
fffffff5
00000007
fffffffe
fffffffc
0000000a
00000009
00000001
00000016
0000000a
00000000
00000000
ffffffff
0000000a
fffffffe
fffffffb
fffffff4
fffffff3
fffffffc
ffffffe9
fffffff8
00000014
00000015
ffffffe2
00000000
fffffffb
00000017
00000005
00000001
00000001
fffffff1
ffffffff
00000007
00000006
00000009
0000000d
00000025
0000001f
0000000b
fffffff3
fffffff5
fffffff3
ffffffe8
fffffff6
ffffffde
fffffff2
fffffff8
ffffffdd
fffffff6
0000001a
00000010
fffffff4
00000018
0000000d
00000021
00000009
fffffff1
fffffffe
fffffff4
fffffffb
00000006
0000000b
0000001f
00000014
0000001b
00000012
00000008
ffffffe3
fffffff7
ffffffef
fffffff9
fffffff2
ffffffdf
ffffffec
ffffffec
fffffffb
00000005
00000011
00000015
00000012
00000001
00000002
0000000d
00000025
ffffffed
ffffffea
fffffff1
fffffffd
0000000a
00000000
00000011
00000021
00000019
00000005
fffffffa
ffffffdf
fffffff7
00000002
00000008
0000000a
fffffff6
fffffff9
00000009
fffffff5
00000011
00000013
ffffffee
ffffffdd
00000011
fffffffb
00000010
00000027
fffffffe
00000001
00000002
0000001e
0000001d
00000019
0000001b
00000021
00000012
ffffffed
ffffffdb
ffffffd2
fffffffa
0000000e
00000008
fffffff9
ffffffe8
ffffffea
fffffff4
00000004
00000024
ffffffff
ffffffe3
ffffffe6
00000008
fffffffb
0000001e
0000001d
fffffff9
00000021
00000015
00000015
00000030
0000001a
0000001a
00000014
fffffffd
ffffffe2
ffffffc9
ffffffe8
fffffff1
00000001
00000001
fffffff1
fffffffb
ffffffef
00000003
00000019
00000021
00000005
ffffffe4
ffffffdf
fffffff4
00000019
00000010
00000010
fffffff8
00000024
00000025
00000023
00000028
00000016
00000014
00000007
ffffffed
ffffffd6
ffffffdb
ffffffed
0000000a
00000015
fffffff9
fffffff0
fffffff7
0000000c
00000006
00000025
00000038
00000029
fffffffa
ffffffd6
fffffff5
00000012
00000003
fffffff3
ffffffe9
0000000c
00000018
00000013
00000027
0000001c
00000011
00000004
fffffff6
ffffffe4
ffffffe6
ffffffe8
fffffff4
fffffff0
fffffff1
00000001
fffffff2
0000000d
00000013
0000001f
00000026
00000012
00000009
ffffffdd
ffffffeb
ffffffef
00000018
fffffffc
fffffff7
00000009
00000017
fffffffa
0000000f
00000019
00000013
00000004
ffffffee
ffffffeb
ffffffe0
ffffffdf
fffffff1
fffffff3
fffffff3
fffffff9
fffffff9
0000000b
0000001c
0000001f
00000012
0000000a
fffffffb
ffffffd8
ffffffe8
fffffffa
0000000a
fffffff5
fffffffe
fffffff6
00000012
ffffffff
00000013
0000000e
0000000c
fffffffa
fffffffa
ffffffe8
ffffffc7
ffffffeb
fffffffe
fffffffb
ffffffff
0000000d
0000000d
0000000e
0000000f
0000001d
00000015
fffffffb
00000002
ffffffd6
00000000
fffffffd
fffffff4
00000009
0000000b
fffffff3
00000007
00000003
00000005
0000000a
00000016
00000004
fffffff3
ffffffdb
ffffffc2
ffffffef
00000009
0000000e
00000009
ffffffff
0000000c
0000001c
00000017
0000000c
00000001
fffffff5
fffffff6
ffffffde
ffffffe7
00000000
fffffffe
0000000d
00000013
00000007
fffffff7
0000000c
00000012
0000000f
00000007
00000007
fffffffc
ffffffed
ffffffd7
fffffff5
0000000d
00000013
00000010
00000011
00000014
0000001a
0000000c
00000002
fffffff9
00000008
fffffff0
ffffffdd
fffffff0
fffffffe
fffffff6
00000011
fffffff4
00000010
fffffffd
fffffffa
00000000
00000015
0000001e
00000000
fffffff5
fffffff9
fffffff0
00000010
00000016
00000018
0000001e
0000001d
00000023
00000003
00000003
00000006
fffffffb
ffffffff
0000001e
ffffffeb
00000000
fffffff5
fffffff3
ffffffd9
ffffffe7
00000004
00000008
fffffff8
fffffff0
00000009
00000000
00000008
fffffff9
00000002
fffffff7
00000015
0000001e
00000022
00000017
00000013
0000000f
0000000a
00000007
00000004
ffffffe4
00000012
0000001f
00000017
fffffff9
00000003
fffffff5
ffffffe4
ffffffea
ffffffec
ffffffeb
ffffffd3
ffffffec
fffffffb
fffffffb
ffffffef
fffffff0
fffffffd
0000000d
00000017
00000018
0000001f
00000017
0000000c
00000019
00000000
00000000
fffffff0
fffffffb
fffffffa
00000017
0000000d
00000001
0000000b
00000004
00000000
fffffff8
ffffffe6
ffffffec
ffffffed
ffffffe0
ffffffe5
ffffffe9
ffffffee
ffffffff
0000000a
00000002
00000022
00000019
00000009
00000014
fffffffe
fffffff7
0000000a
ffffffe4
ffffffdc
ffffffe3
00000011
0000000d
00000012
fffffff7
00000009
fffffffa
fffffffc
fffffffe
ffffffef
fffffffb
fffffff6
ffffffe8
fffffff7
fffffff2
00000006
ffffffff
00000008
0000000b
00000006
00000014
00000002
0000001e
0000000d
00000009
00000018
00000002
00000007
00000001
0000000e
ffffffea
fffffffc
fffffffc
00000009
fffffff7
fffffffb
0000001b
ffffffff
fffffffd
fffffffa
fffffff9
00000005
00000003
fffffff7
fffffff8
00000016
00000010
fffffffe
0000000a
00000016
00000012
0000000c
00000022
0000001a
00000035
0000004b
0000002e
0000002d
fffffff6
00000003
fffffffa
fffffff5
fffffff5
0000000b
0000000c
00000010
fffffff3
ffffffff
ffffffff
0000000e
0000002a
00000028
00000027
00000027
00000023
00000024
00000026
00000028
00000018
00000022
00000037
00000040
00000021
00000028
00000012
0000000f
00000000
00000006
fffffff8
fffffff4
fffffffe
00000002
00000001
0000000b
fffffffe
0000000e
00000012
00000007
0000001d
00000023
0000001c
00000027
00000030
0000002e
00000003
00000010
00000022
00000013
00000010
00000005
fffffff5
fffffffb
00000008
fffffffa
fffffff4
00000006
00000000
000032da
00000000
00000000
00000000
00000000
00000000
00000000
00000000
00000000
00000000
00000000
00000000
00000000
00000000
00000000
7fffffff
00000000
00000000
00000000
00000000
00000000
00000000
00000000
00000000
00000000
00000000
00000000
00000000
00000000
00000000
00000000
00000000
00000000
00000000
00000000
00000000
00000000
00000000
00000000
00000000
00000000
00000000
00000000
00000000
00000000
00000000
00000000
00000000
00000000
00000000
00000000
00000000
00000000
00000000
00000000
00000000
00000000
00000000
00000000
00000000
00000000
00000000
00000000
00000000
00000000
00000000
00000000
00000000
00000000
00000000
00000000
00000000
00000000
00000000
00000000
00000000
00000000
00000000
00000000
00000000
00000000
00000000
00000000
00000000
00000000
00000000
00000000
00000000
00000000
00000000
00000000
00000000
00000000
00000000
00000000
00000000
00000000
00000000
00000000
00000000
00000000
00000000
00000000
00000000
00000000
00000000
00000000
00000000
00000000
00000000
00000000
00000000
00000000
00000000
00000000
00000000
00000000
00000000
00000000
00000000
00000000
00000000
00000000
00000000
00000000
00000000
00000000
00000000
00000000
00000000
00000000
00000000
00000000
00000000
00000000
00000000
00000000
00000000
00000000
00000000
00000000
00000000
00000000
00000000
00000000
00000000
00000000
00000000
00000000
00000000
00000000
00000000
00000000
00000000
00000000
00000000
00000000
00000000
00000000
00000000
00000000
00000000
00000000
00000000
00000000
00000000
00000000
00000000
00000000
00000000
00000000
00000000
00000000
00000000
00000000
00000000
00000000
00000000
00000000
00000000
00000000
00000000
00000000
00000000
00000000
00000000
00000000
00000000
00000000
00000000
00000000
00000000
00000000
00000000
00000000
00000000
00000000
00000000
00000000
00000000
00000000
00000000
00000000
00000000
00000000
00000000
00000000
00000000
00000000
00000000
00000000
00000000
00000000
00000000
00000000
00000000
00000000
00000000
00000000
00000000
00000000
00000000
00000000
00000000
00000000
00000000
00000000
00000000
00000000
00000000
00000000
00000000
00000000
00000000
00000000
00000000
00000000
00000000
00000000
00000000
