00000004
ffffffff
fffffffd
0000000b
0000000b
0000000c
0000000b
00000005
0000000b
fffffff6
fffffff9
00000008
0000000d
00000008
00000003
fffffffc
00000001
fffffff7
fffffffc
00000000
00000002
fffffffa
fffffffb
00000001
0000000b
fffffff5
00000006
00000002
00000008
fffffff9
00000001
00000003
00000001
00000000
0000000e
00000007
0000000c
00000014
ffffffff
00000005
0000000b
00000019
00000017
00000015
0000000f
0000000a
00000015
0000001a
00000004
fffffffa
00000006
fffffff4
fffffff9
fffffff6
fffffff7
fffffffb
fffffffc
00000002
00000006
00000014
00000008
00000009
00000014
00000026
0000000c
fffffff8
fffffff6
00000006
00000015
00000025
00000051
00000054
00000054
00000037
0000003a
0000003a
00000026
0000000c
0000000f
0000001a
fffffffe
fffffff9
0000000b
fffffffe
00000009
fffffffa
00000007
00000014
0000000b
fffffff9
00000013
00000025
00000013
0000000e
0000001b
ffffffff
00000010
0000000f
00000021
0000001b
00000012
0000001d
00000025
00000012
00000019
00000015
fffffffa
ffffffff
0000000c
fffffff6
0000000c
0000000b
00000009
00000001
fffffffd
0000000e
00000007
0000001c
00000016
0000001f
0000000d
00000003
fffffffe
00000004
00000011
0000000a
00000004
00000010
00000000
ffffffff
0000000d
00000001
fffffff9
0000001b
0000002a
00000026
00000021
0000001a
00000028
0000000f
fffffff8
00000006
fffffff4
fffffffe
00000001
0000001f
00000020
fffffff0
fffffff9
00000003
0000000b
00000013
00000017
00000008
fffffffe
00000002
00000001
00000009
00000016
00000011
0000000c
00000001
00000017
0000001f
0000001b
00000016
0000001b
00000006
ffffffff
00000008
fffffff8
fffffffc
0000000b
fffffffd
fffffffd
ffffffec
fffffffb
0000000d
0000000f
00000010
00000009
00000009
0000000b
00000000
0000000c
0000000d
0000001a
00000001
00000011
fffffff8
00000003
00000005
0000000c
0000002b
0000002c
00000020
fffffffc
0000000a
ffffffed
fffffffd
00000002
fffffff2
ffffffed
fffffffb
00000007
fffffff9
00000011
0000000c
00000011
00000009
00000029
00000008
0000001a
00000018
00000019
00000018
0000001c
0000000b
ffffffff
ffffffed
fffffff6
0000004d
00000036
00000019
00000005
00000006
ffffffce
ffffffec
ffffffdd
fffffff3
fffffff1
fffffff5
fffffff8
fffffffb
0000000f
00000005
00000011
00000014
00000003
fffffffd
ffffffff
fffffffc
fffffff8
00000001
fffffffe
00000009
fffffff9
ffffffef
ffffffe6
00000008
0000002b
00000011
00000005
0000000a
ffffffc7
ffffffea
fffffff7
fffffffd
00000002
00000003
00000019
0000000c
00000009
00000018
0000000d
fffffffd
fffffff3
ffffffe4
ffffffc8
ffffffc9
ffffffcb
ffffffca
ffffffcd
ffffffe1
00000003
ffffffe5
ffffffd5
fffffff9
ffffffff
00000004
00000009
ffffffea
ffffffe0
00000019
00000006
0000000a
fffffffc
0000000b
0000001a
fffffffd
fffffff2
00000001
00000001
0000000c
ffffffed
ffffffd8
ffffffd8
ffffffc6
ffffffc7
ffffffc1
ffffffce
ffffffc4
ffffffcb
ffffffbe
ffffffaf
ffffffef
0000000a
00000000
00000001
ffffffea
ffffffdf
0000000d
00000000
00000015
fffffff0
00000000
ffffffff
ffffffed
fffffff3
fffffffa
fffffffb
00000015
fffffff6
ffffffe9
00000002
00000003
00000002
ffffffe2
ffffffdb
ffffffef
ffffffd6
ffffffac
ffffff98
ffffffd9
0000000f
0000000b
00000002
ffffffec
ffffffd9
00000010
00000012
00000011
fffffffc
00000006
fffffffa
fffffff9
00000006
0000000a
fffffffb
00000005
00000009
00000001
00000009
0000000b
00000013
fffffffd
ffffffff
fffffffa
fffffff5
ffffffd8
ffffffb3
ffffffc7
00000010
0000000f
fffffffc
fffffff5
ffffffea
00000006
0000000e
fffffff4
00000002
00000007
00000005
fffffff3
00000009
fffffffc
00000013
0000000a
0000000a
fffffffe
0000000b
00000001
fffffffe
fffffffa
00000002
00000001
fffffff9
fffffff5
ffffffee
ffffffe3
00000002
ffffffee
00000017
00000007
ffffffe9
fffffff3
ffffffeb
ffffffca
fffffffd
00000003
fffffffd
00000003
ffffffff
00000006
fffffffe
0000000c
0000000a
00000001
ffffffff
00000002
fffffff1
ffffffee
fffffff5
00000002
fffffffc
00000021
00000019
ffffffea
ffffffed
fffffffa
0000000d
00000006
0000000c
fffffff5
ffffffc9
ffffffce
ffffffdb
ffffffdd
ffffffec
00000005
0000000b
00000000
00000011
00000000
0000000a
00000000
00000004
00000001
fffffff5
00000008
00000006
00000011
0000000b
00000014
00000031
00000019
00000016
00000000
fffffff9
0000001a
0000001a
00000016
ffffffc2
ffffffb5
ffffffb8
ffffffc8
ffffffd4
00000000
0000000c
0000001a
00000014
00000009
00000007
fffffffd
fffffffb
fffffff1
0000000c
00000005
00000003
00000012
00000011
00000021
0000003a
00000022
00000019
fffffffd
0000000a
00000009
00000013
00000011
ffffffc4
ffffffac
ffffffb6
ffffffb7
ffffffc9
ffffffad
ffffffc8
ffffffd8
ffffffe6
ffffffe1
fffffff7
00000000
fffffffd
ffffffff
fffffffa
00000006
00000003
0000000c
00000017
0000001f
00000018
fffffff3
00000004
ffffffe4
00000006
fffffff9
00000012
00000029
ffffffe9
ffffffcf
ffffffb9
ffffffbc
ffffffc3
ffffff9a
ffffff81
ffffff8a
ffffff92
ffffffb3
ffffffe4
fffffffc
fffffffc
00000007
fffffff8
00000018
0000001b
0000001d
00000010
0000000f
00000016
00000011
ffffffde
fffffff3
00000009
00000010
00000006
0000002b
fffffffa
ffffffe3
ffffffe9
ffffffcc
ffffffde
ffffffc6
ffffffb4
ffffffbf
ffffffd0
ffffffd2
ffffffef
00000007
0000000b
00000007
00000016
00000014
0000000c
00000010
00000002
00000019
00000026
00000034
fffffff4
ffffffed
fffffff5
00000000
0000000d
0000002a
0000000c
fffffff8
00000001
ffffffee
0000000f
00000013
00000000
0000000b
00000000
fffffff2
00000004
00000014
0000000e
00000019
00000017
00000020
0000001e
0000000b
00000024
00000022
00000028
0000002d
00000001
00000009
00000006
0000000a
fffffff0
0000002c
00000026
00000020
00000010
0000001a
00000025
0000001d
0000002f
0000001e
00000029
0000001a
00000006
00000008
00000010
00000007
00000009
0000000e
00000011
00000026
00000014
0000001e
00000025
00000017
ffffffe8
fffffffa
00000005
fffffff9
ffffffe8
00000015
00000030
0000002e
00000010
00000012
00000031
00000022
00000021
0000001d
0000001c
00000006
00000009
00000002
fffffffc
0000000a
00000004
00000008
00000029
00000002
00000003
00000020
00000028
0000001c
00000004
0000000b
fffffff7
fffffffe
00000013
0000002e
00000042
00000031
00000026
00000017
00000016
0000001a
0000002b
00000020
00000010
00000007
00000005
00000003
00000000
00000001
fffffff5
fffffff7
fffffff4
fffffffa
fffffff0
00000003
0000001a
00000012
00000006
0000000a
ffffffff
00000003
fffffff9
0000001f
00000034
00000023
0000002a
00000034
00000025
0000001f
0000001e
0000000c
0000000c
00000004
fffffffd
fffffff1
fffffff9
fffffff4
ffffffe4
ffffffe3
ffffffee
fffffff7
fffffff6
fffffff2
00000000
fffffffc
00000012
0000000a
fffffff9
fffffff9
00000019
00000002
0000000f
00000038
00000043
0000003a
00000042
00000019
0000001c
00000019
00000025
0000001c
0000000d
00000013
00000016
fffffffb
ffffffec
00000003
00000012
0000001f
00000032
0000001f
00000029
00000007
00000006
00000008
fffffff6
00000006
fffffff9
0000000f
0000001f
00000014
00000019
00000023
0000001c
0000001a
0000000f
0000000b
0000002a
00000030
00000015
00000013
0000001f
00000022
0000001a
00000003
0000001d
0000000d
ffffffff
00000027
00000006
fffffffd
00000000
fffffffc
0000000b
00000003
00000009
fffffff5
fffffffd
fffffff2
0000000b
0000000b
00000008
fffffffa
ffffffee
fffffff0
00000006
fffffff8
fffffffe
0000000d
ffffffff
fffffff9
00000000
fffffff5
ffffffe8
ffffffea
fffffff0
fffffffd
fffffffc
fffffff5
fffffff6
00000008
000000dc
00000000
00000000
00000000
00000000
00000000
00000000
00000000
00000000
00000000
00000000
00000000
00000000
00000000
00000000
7fffffff
00000000
00000000
00000000
00000000
00000000
00000000
00000000
00000000
00000000
00000000
00000000
00000000
00000000
00000000
00000000
00000000
00000000
00000000
00000000
00000000
00000000
00000000
00000000
00000000
00000000
00000000
00000000
00000000
00000000
00000000
00000000
00000000
00000000
00000000
00000000
00000000
00000000
00000000
00000000
00000000
00000000
00000000
00000000
00000000
00000000
00000000
00000000
00000000
00000000
00000000
00000000
00000000
00000000
00000000
00000000
00000000
00000000
00000000
00000000
00000000
00000000
00000000
00000000
00000000
00000000
00000000
00000000
00000000
00000000
00000000
00000000
00000000
00000000
00000000
00000000
00000000
00000000
00000000
00000000
00000000
00000000
00000000
00000000
00000000
00000000
00000000
00000000
00000000
00000000
00000000
00000000
00000000
00000000
00000000
00000000
00000000
00000000
00000000
00000000
00000000
00000000
00000000
00000000
00000000
00000000
00000000
00000000
00000000
00000000
00000000
00000000
00000000
00000000
00000000
00000000
00000000
00000000
00000000
00000000
00000000
00000000
00000000
00000000
00000000
00000000
00000000
00000000
00000000
00000000
00000000
00000000
00000000
00000000
00000000
00000000
00000000
00000000
00000000
00000000
00000000
00000000
00000000
00000000
00000000
00000000
00000000
00000000
00000000
00000000
00000000
00000000
00000000
00000000
00000000
00000000
00000000
00000000
00000000
00000000
00000000
00000000
00000000
00000000
00000000
00000000
00000000
00000000
00000000
00000000
00000000
00000000
00000000
00000000
00000000
00000000
00000000
00000000
00000000
00000000
00000000
00000000
00000000
00000000
00000000
00000000
00000000
00000000
00000000
00000000
00000000
00000000
00000000
00000000
00000000
00000000
00000000
00000000
00000000
00000000
00000000
00000000
00000000
00000000
00000000
00000000
00000000
00000000
00000000
00000000
00000000
00000000
00000000
00000000
00000000
00000000
00000000
00000000
00000000
00000000
00000000
00000000
00000000
00000000
00000000
