fffffff9
0000000b
00000001
0000000b
00000000
fffffff8
fffffff8
00000009
fffffffc
00000009
0000000b
ffffffff
00000010
00000011
00000013
0000000d
fffffffd
fffffff6
00000001
00000008
0000000c
fffffffa
fffffffe
00000006
fffffff5
fffffffc
0000000a
00000008
00000006
fffffffe
fffffff4
fffffff4
00000003
00000009
00000015
0000001c
0000001c
0000002c
00000021
00000000
00000014
0000000f
ffffffea
00000003
0000003f
00000036
0000003f
0000001b
0000001a
00000021
00000021
0000000e
fffffffb
fffffff5
fffffff9
fffffff4
00000006
00000003
fffffffc
00000013
00000013
00000016
0000002d
00000027
00000034
0000003e
0000003f
0000005c
00000039
00000000
00000009
0000000a
0000001d
00000028
00000044
00000027
0000002a
00000030
00000020
0000002c
0000001b
00000005
fffffff4
fffffffd
ffffffff
0000000c
fffffffb
0000000f
0000001e
0000001a
0000001f
00000022
00000030
00000031
0000002f
00000032
00000036
00000021
00000027
0000002b
0000002d
00000014
00000025
00000035
00000024
0000001e
00000010
0000000e
00000025
00000007
0000000d
fffffff9
0000000c
00000005
ffffffff
00000024
00000003
00000015
00000003
00000015
00000010
00000019
00000019
00000002
ffffffff
fffffff5
fffffffa
0000000d
fffffffe
00000014
0000001f
00000014
fffffff2
fffffff5
ffffffee
fffffff8
fffffffb
0000000e
00000010
0000000c
00000009
fffffff5
00000019
0000000a
00000017
fffffffe
00000004
00000014
0000000b
00000003
0000000b
0000001c
0000000b
fffffff8
fffffffe
00000001
0000000c
fffffffa
fffffffb
00000009
00000005
fffffff2
ffffffff
ffffffed
00000007
00000003
00000008
0000000f
fffffffb
0000000a
0000000f
00000013
0000001d
00000018
0000001e
0000001b
00000014
00000019
0000000f
00000011
00000016
00000009
00000006
00000000
0000000e
fffffff2
00000002
00000004
fffffff2
ffffffe7
fffffff7
ffffffec
0000000b
0000001a
00000009
fffffffa
0000000b
00000027
0000000d
0000000c
00000029
0000002c
00000012
00000009
0000001f
00000018
00000015
00000010
0000000c
00000004
00000012
fffffff9
ffffffe9
fffffff0
fffffff4
fffffffa
fffffff1
ffffffe8
ffffffe3
ffffffdc
0000000a
0000000c
00000010
ffffffef
00000005
00000018
00000008
00000008
0000000c
00000018
00000003
00000009
0000000a
00000005
0000000b
00000016
fffffffe
fffffff6
00000008
fffffff7
ffffffed
fffffff6
fffffff2
fffffffe
0000000d
00000000
fffffff6
fffffffb
fffffffe
0000000e
00000006
fffffff9
00000002
00000003
00000025
00000005
0000000e
fffffff8
ffffffe0
ffffffef
fffffff8
ffffffec
fffffff0
ffffffe4
ffffffed
ffffffd3
ffffffe8
ffffffe6
fffffff6
fffffff4
fffffffe
fffffff6
00000009
ffffffff
00000009
ffffffff
00000011
00000031
0000001a
0000001a
00000009
fffffffd
00000016
ffffffff
ffffffe1
ffffffe5
ffffffc3
ffffffc4
ffffffd1
ffffffc2
ffffffc9
ffffffca
ffffffb7
ffffffba
ffffffcf
ffffffe5
0000000b
fffffffd
fffffff3
fffffff5
00000006
fffffff8
00000006
00000012
00000021
0000002d
00000026
00000003
fffffffb
00000009
fffffff9
ffffffe8
ffffffd1
ffffffcb
ffffffbd
ffffffb8
ffffffc7
ffffffaf
ffffffc6
ffffffc9
ffffffbf
fffffff5
00000004
ffffffff
00000002
fffffff7
fffffff0
ffffffee
00000000
fffffffb
0000000a
00000016
00000018
00000022
ffffffe6
ffffffe9
fffffffc
fffffff7
ffffffe2
ffffffec
ffffffe0
ffffffce
ffffffbe
ffffffcc
ffffffcb
ffffffcf
ffffffe3
fffffff7
0000000a
00000013
00000021
00000009
0000000a
fffffffa
ffffffef
ffffffec
ffffffea
fffffff2
ffffffef
ffffffdc
fffffff2
00000003
fffffff0
ffffffff
fffffff5
ffffffff
fffffffd
00000005
ffffffcb
ffffffd6
ffffffe6
fffffff5
fffffffd
fffffffa
0000000d
0000000a
00000022
00000034
00000013
00000009
00000022
fffffffe
00000007
00000004
fffffff5
00000004
ffffffeb
ffffffea
fffffff8
00000009
00000000
00000010
00000009
fffffff0
fffffff9
0000000a
fffffff3
00000005
00000016
0000000e
00000013
0000001d
00000023
00000015
00000027
00000017
00000019
00000010
00000005
fffffffb
0000001e
0000000e
00000008
00000003
fffffffc
fffffff6
00000015
0000000d
0000000d
0000001c
fffffffc
fffffffa
ffffffe1
0000001c
00000010
0000000b
00000026
00000013
fffffffa
0000000b
00000013
00000018
00000013
0000000f
00000001
0000000b
fffffffb
0000000e
00000014
0000000e
00000011
00000009
fffffffa
00000008
00000032
00000010
0000000f
00000022
00000001
00000010
00000008
00000031
00000036
0000002a
00000019
0000000b
fffffff0
fffffffa
0000000c
00000002
0000000f
00000008
00000010
00000000
00000007
0000000d
0000000b
0000001d
00000005
00000003
fffffffd
fffffffe
00000026
0000003b
00000012
0000001b
00000002
fffffffd
00000007
0000003b
00000022
0000001f
00000021
00000011
00000005
ffffffeb
fffffffa
fffffffe
fffffffc
fffffff1
fffffffc
fffffff9
00000009
0000000e
00000019
0000000b
fffffffb
fffffff6
ffffffe7
ffffffed
fffffffe
00000020
00000003
00000010
0000000e
00000004
fffffff5
00000037
00000013
0000001e
00000017
00000016
0000001d
00000003
00000004
00000002
00000007
00000000
00000001
00000003
00000017
0000001c
00000010
fffffff7
fffffffa
fffffff7
fffffffb
ffffffef
00000007
00000033
00000015
0000000b
fffffff4
ffffffea
fffffff7
00000020
00000007
00000007
fffffffd
00000007
0000001a
00000012
00000015
0000000f
0000001f
00000027
00000020
0000001e
00000010
0000001b
00000009
00000001
fffffff9
fffffffc
ffffffff
fffffff0
00000003
0000000b
00000008
ffffffff
fffffff3
ffffffee
fffffffc
00000019
0000000f
0000001e
0000000e
0000000c
00000013
00000018
00000019
0000001d
00000015
00000030
0000001c
00000011
00000005
fffffff5
00000003
ffffffeb
fffffff3
fffffff4
ffffffee
ffffffe9
fffffff7
fffffff6
00000002
fffffffe
fffffff0
00000004
0000001c
00000008
ffffffea
00000000
fffffffd
00000008
00000001
00000003
0000000f
00000006
00000009
0000000b
00000009
00000009
fffffff9
fffffff8
0000000d
00000002
ffffffed
fffffffc
00000000
00000006
fffffffa
0000001a
00000020
00000001
ffffffe5
fffffff9
00000024
00000005
0000000f
ffffffe6
ffffffe4
fffffffa
00000000
fffffffd
00000000
00000000
fffffffb
00000000
fffffff9
fffffffc
00000000
fffffff1
fffffff5
fffffffb
fffffffc
fffffff1
fffffff2
fffffff4
fffffff5
00000019
0000000f
00000000
fffffffb
00000001
00000028
0000000d
00000020
00000001
ffffffeb
ffffffee
ffffffed
fffffffb
ffffffee
fffffffd
ffffffe3
fffffff1
fffffff1
ffffffe8
ffffffea
ffffffdd
ffffffe6
ffffffe4
ffffffff
00000005
00000010
00000002
fffffffc
fffffffc
0000000e
fffffff4
00000001
0000000b
0000000d
00000020
00000023
fffffff4
0000000a
fffffffe
00000003
fffffffb
fffffff1
fffffff0
fffffffb
fffffffa
fffffff6
ffffffef
ffffffe5
fffffff0
ffffffe4
ffffffe5
fffffffa
00000020
fffffff5
ffffffe4
0000000e
0000000b
fffffffd
00000003
ffffffff
fffffffd
0000000f
0000000c
00000022
00000004
00000003
0000000e
00000010
00000012
00000011
0000001a
00000013
00000008
00000008
00000002
00000018
00000026
0000001a
00000016
fffffffc
fffffffe
fffffff5
00000007
00000001
ffffffec
fffffff9
0000000a
00000004
0000000c
00000004
0000000c
fffffffd
fffffff3
fffffff4
fffffffe
ffffffef
fffffffd
fffffffe
00000005
fffffffe
0000000c
00000005
0000001f
00000015
00000009
0000000c
00000013
00000004
0000000a
00000009
fffffffc
00000007
fffffffd
fffffff7
0000000a
00000006
00000008
00000003
0000000a
fffffff5
0000000d
fffffffd
00000010
00000009
0000000e
00000006
fffffffa
fffffffd
00000000
fffffff2
00000001
fffffff4
fffffff5
0000000c
00000007
0000000e
00000005
fffffffa
fffffff9
00000009
fffffff6
00000008
fffffffb
0000036c
00000000
00000000
00000000
00000000
00000000
00000000
00000000
00000000
00000000
00000000
00000000
00000000
00000000
00000000
00000000
00000000
00000000
00000000
00000000
00000000
00000000
00000000
00000000
00000000
00000000
00000000
00000000
00000000
00000000
00000000
00000000
00000000
00000000
00000000
00000000
00000000
00000000
00000000
00000000
00000000
00000000
00000000
00000000
00000000
00000000
00000000
00000000
00000000
00000000
00000000
00000000
00000000
00000000
00000000
00000000
00000000
00000000
00000000
00000000
00000000
00000000
00000000
00000000
00000000
00000000
00000000
00000000
00000000
00000000
00000000
00000000
00000000
00000000
00000000
00000000
00000000
00000000
00000000
00000000
00000000
00000000
00000000
00000000
00000000
00000000
00000000
00000000
00000000
00000000
00000000
00000000
00000000
00000000
00000000
00000000
00000000
00000000
00000000
00000000
00000000
00000000
00000000
00000000
00000000
00000000
00000000
00000000
00000000
00000000
00000000
00000000
00000000
00000000
00000000
00000000
00000000
00000000
00000000
00000000
00000000
00000000
00000000
00000000
00000000
00000000
00000000
00000000
00000000
00000000
00000000
00000000
00000000
00000000
00000000
00000000
00000000
00000000
00000000
00000000
00000000
00000000
00000000
00000000
00000000
00000000
00000000
00000000
00000000
00000000
00000000
00000000
00000000
00000000
00000000
00000000
00000000
00000000
00000000
00000000
00000000
00000000
00000000
00000000
00000000
00000000
00000000
00000000
00000000
00000000
00000000
00000000
00000000
00000000
00000000
00000000
00000000
00000000
00000000
00000000
00000000
00000000
00000000
00000000
00000000
00000000
00000000
00000000
00000000
00000000
00000000
00000000
00000000
00000000
00000000
00000000
00000000
00000000
00000000
00000000
00000000
00000000
00000000
00000000
00000000
00000000
00000000
00000000
00000000
00000000
00000000
00000000
00000000
00000000
00000000
00000000
00000000
00000000
00000000
00000000
00000000
00000000
00000000
00000000
00000000
00000000
00000000
00000000
00000000
00000000
00000000
00000000
00000000
00000000
00000000
00000000
00000000
00000000
00000000
00000000
