fffffffe
ffffffff
00000009
00000008
00000002
ffffffff
00000002
00000003
fffffff4
fffffff6
00000000
00000006
fffffff4
ffffffea
fffffff5
fffffffc
fffffff4
00000001
fffffffb
fffffffd
ffffffff
00000002
00000007
00000000
fffffff6
0000000b
ffffffff
00000001
0000000c
fffffffa
fffffff6
fffffffe
00000004
fffffffe
00000005
fffffff1
fffffff0
fffffff6
ffffffe5
0000000d
00000002
00000000
fffffff8
ffffffde
ffffffe9
fffffff3
ffffffcd
ffffffd7
ffffffe5
ffffffe4
ffffffed
ffffffeb
0000000b
fffffff4
ffffffff
00000005
00000009
fffffffe
fffffff5
ffffffec
fffffff7
ffffffe8
fffffff1
ffffffe9
ffffffda
ffffffda
ffffffce
ffffffd5
ffffffba
ffffffcb
ffffffc5
ffffffb9
ffffffd5
fffffff8
00000003
fffffff7
ffffffe1
ffffffe7
ffffffe6
ffffffdb
ffffffd6
fffffffc
0000000c
00000007
ffffffff
fffffffe
fffffff3
00000001
0000000b
fffffff7
fffffffc
00000001
00000008
ffffffe9
00000002
00000005
00000000
fffffffa
fffffffd
fffffff2
ffffffea
00000002
fffffffc
fffffff4
0000001e
00000021
00000017
00000004
fffffff1
ffffffff
00000009
00000003
fffffff5
fffffff7
ffffffdc
00000011
00000001
fffffff2
ffffffef
0000000d
00000007
00000017
0000001e
0000002f
00000012
00000010
0000000a
0000000c
00000003
00000012
0000000f
0000000e
00000013
00000019
00000014
00000019
0000002d
00000029
00000030
00000009
fffffff7
fffffff4
ffffffdc
00000002
ffffffd8
ffffffdf
ffffffea
00000002
00000000
0000000f
0000001b
0000001f
00000019
00000013
00000012
00000012
00000018
00000012
00000006
00000019
00000013
0000001a
00000022
00000008
00000015
0000002b
0000001b
0000000a
00000000
ffffffff
00000003
ffffffe3
ffffffe6
00000009
fffffff4
fffffff8
00000007
0000000a
0000000a
0000000b
0000000d
00000002
00000007
ffffffff
00000009
0000000d
fffffffa
00000014
00000008
00000006
00000023
00000026
0000002e
00000021
00000014
0000000b
00000002
00000001
00000002
ffffffdb
fffffff1
0000000d
00000004
fffffffe
0000001e
0000000e
00000000
fffffffd
fffffffe
fffffff7
fffffffa
00000003
0000000d
fffffffa
00000005
fffffff9
fffffff5
fffffffa
00000014
0000001c
0000002c
0000003a
0000001e
fffffffe
0000001a
ffffffe7
fffffffc
ffffffed
ffffffdd
00000012
00000009
fffffffa
fffffff7
00000008
00000006
0000000e
fffffffe
0000000e
ffffffec
fffffffc
00000013
00000002
0000000a
00000009
00000007
00000005
00000015
00000013
00000044
00000043
00000034
00000020
ffffffe9
ffffffe4
fffffff9
ffffffe7
ffffffed
ffffffed
fffffffe
fffffffd
fffffffa
fffffffc
fffffff7
ffffffff
fffffffe
0000000c
fffffff4
fffffffc
00000003
00000005
00000000
00000003
fffffff4
0000000a
00000002
0000001d
00000049
00000051
0000003c
fffffffa
ffffffed
ffffffe7
ffffffe1
ffffffe9
0000000a
ffffffeb
fffffffe
fffffff6
0000000b
00000012
0000000b
00000014
00000008
fffffff7
fffffff9
fffffffb
00000001
ffffffff
fffffffc
ffffffff
fffffff6
fffffff1
fffffffe
0000001a
00000042
00000041
0000003b
fffffffb
fffffffe
ffffffff
ffffffd5
ffffffdb
ffffffed
ffffffec
fffffff7
00000008
fffffff9
fffffffd
00000003
0000000b
00000017
00000000
00000004
00000011
00000005
fffffff1
ffffffe9
ffffffe6
ffffffd5
ffffffe2
ffffffe8
00000017
0000003b
00000044
00000064
fffffff8
fffffff6
fffffffd
ffffffd4
fffffff8
fffffff1
ffffffef
fffffff7
0000000e
fffffff5
0000000d
00000015
0000001c
0000001e
0000001c
0000000a
0000000d
00000003
ffffffff
ffffffec
fffffff6
ffffffed
ffffffef
ffffffeb
fffffffe
00000019
0000000e
00000027
ffffffe3
fffffff2
00000009
ffffffd1
ffffffed
ffffffe7
00000008
fffffff2
00000008
00000002
00000007
00000018
0000002e
00000037
00000017
0000000c
0000000a
fffffff6
00000000
fffffff6
fffffff8
fffffff5
ffffffe4
ffffffe9
fffffffc
fffffffb
fffffffd
00000012
ffffffde
0000000a
ffffffff
ffffffe5
ffffffdd
fffffff1
00000003
00000001
fffffffe
fffffffb
0000000b
0000001a
00000024
00000028
00000013
00000008
0000000e
fffffffe
00000003
fffffffe
fffffff3
ffffffe3
fffffffa
ffffffed
ffffffef
fffffffe
ffffffe3
ffffffe1
ffffffee
00000013
00000010
0000000a
ffffffff
fffffffd
00000007
fffffff2
00000002
00000003
0000000a
0000000d
00000009
00000015
0000000f
00000015
00000004
fffffffa
fffffffd
fffffffc
ffffffef
fffffff6
ffffffee
fffffffb
0000000c
fffffffc
ffffffee
fffffff0
ffffffe8
fffffff6
0000001f
00000006
00000011
fffffff8
00000005
fffffff8
fffffff7
fffffff8
00000005
ffffffff
fffffffb
0000001f
00000010
fffffffc
00000015
00000001
0000000c
fffffffd
fffffffe
fffffff9
ffffffef
ffffffff
00000004
00000000
fffffffc
ffffffdd
ffffffea
00000002
00000001
00000009
00000006
00000000
0000000a
0000000c
0000000b
fffffffe
00000003
fffffff7
00000002
fffffffd
fffffff6
00000000
fffffffe
00000014
00000001
fffffff2
fffffffa
00000001
00000007
00000000
00000008
00000007
ffffffb2
ffffffd1
fffffff4
ffffffec
ffffffea
fffffffb
fffffffe
00000008
00000023
00000022
0000000b
0000000c
00000014
00000011
00000017
00000015
00000006
fffffff7
fffffff9
0000000b
00000002
ffffffee
ffffffef
00000005
fffffff9
ffffffef
0000000f
00000008
ffffffcf
ffffffd8
ffffffe9
fffffff1
ffffffeb
fffffff8
00000000
00000014
0000001a
00000015
00000007
0000000e
00000005
0000000a
0000000a
00000000
fffffffc
fffffffc
00000008
ffffffff
fffffff8
fffffff5
00000006
0000000f
00000004
ffffffff
00000015
00000007
ffffffd6
ffffffce
fffffff1
00000002
0000001b
00000010
fffffffb
fffffff8
00000008
00000000
0000000e
00000021
0000000a
0000001b
00000003
fffffffe
fffffffb
fffffff7
00000006
fffffffd
0000000d
fffffffa
fffffff8
00000016
00000004
0000001a
00000006
ffffffec
fffffff6
ffffffcc
fffffff4
fffffff7
fffffff3
fffffff5
fffffff9
00000005
fffffff4
fffffffe
00000013
0000000a
00000012
00000003
0000000a
00000002
00000001
00000007
0000000d
00000003
00000009
fffffff9
00000000
00000001
00000000
0000001b
00000005
fffffff1
0000000a
00000010
00000008
fffffff8
fffffff0
00000005
00000005
00000008
ffffffe6
00000001
00000015
fffffffe
00000000
00000005
00000021
00000013
00000017
0000000b
0000000a
00000019
00000004
ffffffff
0000000c
fffffffb
00000008
00000007
00000019
0000000a
0000000c
0000000b
fffffffe
fffffffc
0000000c
00000018
00000027
00000013
ffffffff
ffffffeb
fffffff8
00000020
00000019
00000019
0000001e
0000000f
00000027
0000001f
00000008
00000015
00000000
00000015
00000006
0000000f
0000000a
00000000
00000008
00000007
00000005
fffffffe
00000003
00000009
fffffff5
00000006
00000020
fffffff1
ffffffe6
ffffffe8
fffffff1
0000000d
00000012
00000011
00000024
00000030
0000003a
0000002d
0000001d
00000011
00000009
0000000d
00000018
00000003
00000007
00000010
fffffffa
00000006
ffffffe4
fffffffd
fffffff4
fffffffb
fffffffd
0000000f
00000001
ffffffdb
ffffffdc
ffffffe9
ffffffee
ffffffea
fffffff2
00000014
0000000b
0000000f
00000015
00000000
0000000f
0000001c
00000009
00000011
0000000d
00000006
fffffff1
0000000b
00000013
0000001f
fffffff9
00000006
fffffffe
00000001
fffffffb
00000003
fffffff1
ffffffea
ffffffeb
ffffffde
ffffffd2
ffffffd8
ffffffd9
ffffffe2
fffffff3
fffffff8
ffffffeb
ffffffd3
ffffffe1
ffffffde
ffffffe0
fffffff0
ffffffe7
ffffffd8
ffffffe0
ffffffdd
ffffffed
fffffff0
fffffff9
fffffff4
fffffff4
00000004
fffffffd
fffffff6
0000000c
00000005
fffffff8
ffffffe5
ffffffdf
ffffffd4
ffffffd9
ffffffed
fffffffd
fffffff4
ffffffe2
ffffffcb
ffffffee
ffffffe5
ffffffd4
ffffffc5
ffffffd6
ffffffda
ffffffe3
ffffffd8
fffffff6
00000007
00000005
00000006
fffffffc
0000142f
00000000
00000000
00000000
00000000
00000000
00000000
00000000
00000000
00000000
00000000
00000000
00000000
00000000
00000000
00000000
00000000
00000000
00000000
00000000
00000000
00000000
00000000
00000000
00000000
00000000
00000000
00000000
00000000
00000000
00000000
00000000
00000000
00000000
00000000
00000000
00000000
00000000
00000000
00000000
00000000
00000000
00000000
00000000
00000000
00000000
00000000
00000000
00000000
00000000
00000000
00000000
00000000
00000000
00000000
00000000
00000000
00000000
00000000
00000000
00000000
00000000
00000000
00000000
00000000
00000000
00000000
00000000
00000000
00000000
00000000
00000000
00000000
00000000
00000000
00000000
00000000
00000000
00000000
00000000
00000000
00000000
00000000
00000000
00000000
00000000
00000000
00000000
00000000
00000000
00000000
00000000
00000000
00000000
00000000
00000000
00000000
00000000
00000000
00000000
00000000
00000000
00000000
00000000
00000000
00000000
00000000
00000000
00000000
00000000
00000000
00000000
00000000
00000000
00000000
00000000
00000000
00000000
00000000
00000000
00000000
00000000
00000000
00000000
00000000
00000000
00000000
00000000
00000000
00000000
00000000
00000000
00000000
00000000
00000000
00000000
00000000
00000000
00000000
00000000
00000000
00000000
00000000
00000000
00000000
00000000
00000000
00000000
00000000
00000000
00000000
00000000
00000000
00000000
00000000
00000000
00000000
00000000
00000000
00000000
00000000
00000000
00000000
00000000
00000000
00000000
00000000
00000000
00000000
00000000
00000000
00000000
00000000
00000000
00000000
00000000
00000000
00000000
00000000
00000000
00000000
00000000
00000000
00000000
00000000
00000000
00000000
00000000
00000000
00000000
00000000
00000000
00000000
00000000
00000000
00000000
00000000
00000000
00000000
00000000
00000000
00000000
00000000
00000000
00000000
00000000
00000000
00000000
00000000
00000000
00000000
00000000
00000000
00000000
00000000
00000000
00000000
00000000
00000000
00000000
00000000
00000000
00000000
00000000
00000000
00000000
00000000
00000000
00000000
00000000
00000000
00000000
00000000
00000000
00000000
00000000
00000000
00000000
00000000
00000000
