00000001
0000000a
fffffff9
fffffffc
fffffff6
00000004
fffffffd
fffffffe
fffffffd
0000000b
00000001
00000009
fffffff3
00000009
fffffff5
fffffffd
fffffffa
fffffffa
ffffffff
fffffffb
00000002
0000000b
fffffff6
00000009
00000008
00000003
00000007
fffffff8
fffffff8
fffffff3
fffffff4
fffffff9
fffffff4
fffffffa
fffffff5
fffffffc
fffffff6
ffffffe6
fffffff6
fffffff9
fffffff9
ffffffeb
0000000e
fffffffc
fffffff2
fffffffc
ffffffea
fffffffb
fffffff2
fffffffe
fffffff0
fffffff2
0000000b
fffffff5
fffffffa
00000006
fffffff4
fffffffc
fffffffe
fffffff4
ffffffed
ffffffe9
ffffffdd
ffffffd6
ffffffde
ffffffcb
ffffffce
ffffffb8
ffffffb2
ffffffce
ffffffdc
ffffffea
fffffff1
fffffffa
00000005
00000002
fffffff0
ffffffef
ffffffeb
ffffffdc
fffffff5
00000000
00000005
fffffff8
fffffff9
fffffff5
fffffffa
fffffff2
ffffffea
ffffffec
ffffffdf
ffffffe0
ffffffd7
ffffffc1
ffffffcb
ffffffd0
ffffffd1
ffffffd5
ffffffe6
fffffff3
00000000
0000000c
00000017
0000000e
00000026
00000028
00000016
00000003
fffffffc
fffffffc
fffffff9
0000000c
0000000d
0000000e
00000001
00000005
fffffff3
ffffffed
fffffff6
00000005
fffffff9
fffffff4
ffffffe5
00000011
00000008
fffffffe
fffffff6
0000000e
00000005
00000011
00000004
0000001c
00000007
00000009
0000001a
00000011
00000029
00000035
00000012
00000004
fffffff5
00000004
fffffff6
ffffffec
ffffffd1
fffffff8
fffffff4
fffffffb
fffffffe
0000000b
0000000b
00000009
00000007
fffffff5
ffffffe7
ffffffff
0000000a
00000001
fffffff4
fffffff6
ffffffeb
ffffffe9
0000000c
00000021
0000001f
00000023
00000006
fffffff9
00000008
fffffff7
0000001a
00000003
00000007
0000002b
0000000f
ffffffec
fffffffa
fffffffa
fffffff1
fffffff4
fffffff3
ffffffd8
ffffffd4
ffffffed
ffffffeb
fffffffa
fffffff3
ffffffef
ffffffe9
ffffffea
fffffffe
0000001a
00000016
0000001b
0000001e
00000013
00000003
0000000c
00000021
00000021
00000006
00000017
00000010
0000001a
0000000f
0000000f
0000000f
fffffff1
ffffffe7
ffffffc6
ffffffc9
ffffffe9
ffffffff
fffffffb
00000007
fffffffb
00000005
00000007
00000022
00000026
00000022
00000021
00000045
00000002
00000011
00000024
0000002d
0000001c
00000016
00000020
0000001c
0000001f
00000019
00000011
0000000f
fffffffa
fffffff0
ffffffdd
ffffffe1
ffffffee
00000004
00000001
fffffffe
fffffff6
00000015
00000006
0000001a
00000024
00000032
0000004c
00000037
00000017
00000010
00000017
00000015
0000001d
00000013
00000026
00000014
00000016
0000000c
00000011
00000010
0000000b
00000002
ffffffdb
ffffffdd
ffffffed
fffffffa
0000000c
0000000c
fffffff7
00000016
0000001e
0000001a
00000030
0000003d
0000005a
0000003a
00000013
0000000c
0000002d
00000023
00000007
00000019
0000000b
00000003
00000004
0000001d
00000034
0000002a
00000023
00000002
ffffffea
ffffffde
fffffff6
ffffffff
ffffffff
0000000e
00000012
0000000e
0000001d
0000001f
00000005
00000016
00000027
00000046
00000021
00000022
00000027
0000002a
00000015
00000007
fffffffd
0000000b
0000000e
00000021
00000037
0000004a
0000003b
0000001d
ffffffe8
ffffffd9
fffffff5
00000006
fffffff9
00000001
00000007
00000002
ffffffff
00000012
ffffffff
00000003
00000015
00000039
00000014
0000000b
00000025
0000001f
0000001b
ffffffef
0000000e
00000007
0000000a
0000001b
00000027
0000003a
0000003f
00000023
ffffffed
ffffffde
fffffff0
fffffff2
fffffff6
fffffffd
fffffffa
fffffffc
0000000d
fffffff5
ffffffdb
fffffff8
00000003
0000003b
fffffffe
00000000
00000014
00000037
00000004
fffffff4
00000009
00000016
00000020
00000023
0000001e
0000002e
0000002b
0000000a
ffffffe4
ffffffd0
ffffffe0
fffffff5
00000002
00000007
00000001
00000006
0000000f
fffffffd
ffffffd9
ffffffe2
ffffffe3
fffffff8
fffffff6
00000001
0000001c
00000032
fffffff2
00000003
0000002e
00000016
0000001b
00000018
00000020
00000018
00000012
fffffff3
fffffff0
ffffffe7
fffffff7
fffffff8
fffffffe
fffffffc
0000000c
fffffff6
ffffffec
00000003
ffffffff
fffffffd
ffffffcf
ffffffd6
fffffff1
00000004
0000000c
00000035
00000001
0000000c
0000000d
00000012
0000001e
00000015
00000012
00000013
fffffff1
ffffffee
ffffffe8
00000003
fffffff9
ffffffeb
00000000
ffffffff
ffffffff
fffffff7
00000002
ffffffff
00000006
ffffffee
ffffffd3
fffffff3
fffffff5
00000010
0000000f
00000013
0000001a
00000006
0000000d
00000009
ffffffff
0000000e
0000000a
fffffffa
ffffffd0
ffffffe3
fffffffd
fffffff6
00000008
00000004
fffffff7
ffffffec
fffffffb
fffffff0
00000007
fffffffd
fffffffa
fffffff5
ffffffcb
ffffffe5
fffffff3
0000000a
fffffffd
0000001a
00000003
00000027
00000005
00000005
00000000
fffffff5
fffffff6
ffffffe0
ffffffe0
ffffffd9
ffffffef
00000000
fffffff4
00000007
fffffff4
00000007
fffffff4
0000000c
ffffffff
00000005
00000000
00000004
ffffffe7
fffffff5
fffffff6
00000012
fffffff9
0000000f
00000012
0000001c
fffffffc
ffffffef
ffffffe0
ffffffef
ffffffd6
ffffffdf
ffffffd7
fffffff7
fffffffc
00000004
fffffff9
fffffff0
fffffff3
fffffffd
fffffff8
fffffff1
fffffffc
fffffff2
00000009
0000001a
ffffffe8
ffffffe7
fffffff2
fffffffe
0000001a
00000008
fffffff9
00000001
fffffff8
fffffff1
ffffffe4
ffffffe4
ffffffdf
ffffffe0
ffffffd9
ffffffee
fffffffb
00000009
ffffffed
ffffffef
fffffff2
fffffffc
00000002
00000003
fffffff4
fffffff4
00000003
00000015
ffffffef
ffffffeb
fffffff8
fffffffc
fffffffc
00000002
ffffffe2
ffffffd8
fffffff8
fffffff0
ffffffd8
ffffffe2
ffffffec
ffffffee
00000001
0000000b
00000009
00000005
00000001
ffffffeb
00000001
00000001
00000009
ffffffeb
fffffffa
00000007
0000000a
00000002
ffffffe7
fffffff0
00000002
00000000
fffffffe
ffffffef
ffffffe6
ffffffe8
ffffffed
ffffffdc
ffffffec
ffffffe6
fffffff2
ffffffef
00000005
fffffffc
00000004
00000004
ffffffff
00000004
0000000b
00000000
00000001
00000017
00000019
00000018
0000001f
00000001
fffffff9
0000000e
fffffffc
ffffffff
00000006
fffffff2
fffffff4
fffffffa
fffffff2
ffffffef
fffffff1
ffffffe3
ffffffe1
ffffffef
fffffff3
fffffff8
ffffffee
0000000c
00000006
00000009
0000000c
00000013
0000000c
fffffffe
00000012
fffffff6
00000012
00000003
fffffff0
00000010
fffffff9
fffffffd
fffffff6
fffffff3
00000011
0000001f
fffffff8
00000004
ffffffe9
fffffff8
00000000
fffffff9
fffffff3
fffffff6
00000005
00000013
00000014
00000019
00000002
00000004
0000000a
ffffffed
fffffff8
fffffff1
fffffffc
ffffffef
fffffff6
0000000c
0000000a
00000003
fffffffd
fffffffc
00000015
fffffff7
fffffff4
fffffff5
fffffffc
fffffff8
fffffffd
fffffff2
00000004
ffffffff
00000005
0000001c
00000000
00000005
0000000c
0000000a
00000002
fffffffe
fffffff9
0000000b
ffffffed
fffffff8
ffffffd8
fffffff6
fffffff8
00000004
00000009
ffffffed
00000016
fffffff7
ffffffe0
ffffffec
fffffffc
fffffffd
fffffffd
fffffff7
fffffffe
00000009
00000008
00000008
0000001a
00000017
0000001a
00000010
fffffffb
ffffffff
00000005
00000020
00000015
0000000a
ffffffe6
0000000c
fffffff3
00000008
0000000c
fffffff4
fffffffe
ffffffec
fffffff1
fffffff3
ffffffe3
ffffffdd
ffffffea
fffffff3
fffffff3
0000000e
ffffffff
ffffffea
fffffff8
ffffffed
fffffff3
fffffff2
0000000a
fffffff2
fffffff1
0000000c
fffffffe
fffffff7
00000010
fffffffd
ffffffff
fffffff8
fffffff6
00000008
0000000b
00000002
00000020
fffffff2
fffffff6
fffffff6
fffffffd
00000005
00000009
fffffff7
0000002e
ffffffff
fffffffd
00000017
0000001d
fffffffc
00000000
00000004
00000017
00000016
0000001e
fffffffa
00000005
fffffffc
00000003
000030e8
00000000
00000000
00000000
00000000
00000000
00000000
00000000
00000000
00000000
00000000
00000000
00000000
00000000
00000000
00000000
00000000
00000000
00000000
00000000
00000000
00000000
00000000
00000000
00000000
00000000
00000000
00000000
00000000
00000000
00000000
00000000
00000000
00000000
00000000
00000000
00000000
00000000
00000000
00000000
00000000
00000000
00000000
00000000
00000000
00000000
00000000
00000000
00000000
00000000
00000000
00000000
00000000
00000000
00000000
00000000
00000000
00000000
00000000
00000000
00000000
00000000
00000000
00000000
00000000
00000000
00000000
00000000
00000000
00000000
00000000
00000000
00000000
00000000
00000000
00000000
00000000
00000000
00000000
00000000
00000000
00000000
00000000
00000000
00000000
00000000
00000000
00000000
00000000
00000000
00000000
00000000
00000000
00000000
00000000
00000000
00000000
00000000
00000000
00000000
00000000
00000000
00000000
00000000
00000000
00000000
00000000
00000000
00000000
00000000
00000000
00000000
00000000
00000000
00000000
00000000
00000000
00000000
00000000
00000000
00000000
00000000
00000000
00000000
00000000
00000000
00000000
00000000
00000000
00000000
00000000
00000000
00000000
00000000
00000000
00000000
00000000
00000000
00000000
00000000
00000000
00000000
00000000
00000000
00000000
00000000
00000000
00000000
00000000
00000000
00000000
00000000
00000000
00000000
00000000
00000000
00000000
00000000
00000000
00000000
00000000
00000000
00000000
00000000
00000000
00000000
00000000
00000000
00000000
00000000
00000000
00000000
00000000
00000000
00000000
00000000
00000000
00000000
00000000
00000000
00000000
00000000
00000000
00000000
00000000
00000000
00000000
00000000
00000000
00000000
00000000
00000000
00000000
00000000
00000000
00000000
00000000
00000000
00000000
00000000
00000000
00000000
00000000
00000000
00000000
00000000
00000000
00000000
00000000
00000000
00000000
00000000
00000000
00000000
00000000
00000000
00000000
00000000
00000000
00000000
00000000
00000000
00000000
00000000
00000000
00000000
00000000
00000000
00000000
00000000
00000000
00000000
00000000
00000000
00000000
00000000
00000000
00000000
00000000
00000000
