fffffff5
00000007
fffffffb
00000000
fffffff6
fffffff7
00000005
00000000
00000004
fffffff9
fffffff9
00000003
fffffff2
00000002
0000000a
00000003
00000004
fffffffa
00000007
00000006
fffffff8
fffffffe
fffffffa
00000000
0000000c
fffffffb
fffffff4
00000009
00000007
fffffff6
00000009
fffffff6
fffffff7
fffffff9
ffffffed
ffffffdb
ffffffef
0000000a
fffffff5
ffffffed
fffffff1
fffffffb
ffffffe9
ffffffef
ffffffe4
ffffffe9
00000001
fffffffc
fffffffc
00000014
00000006
00000007
fffffff5
fffffffc
fffffff9
00000000
00000005
00000003
00000008
00000009
fffffff5
ffffffea
ffffffdf
fffffff2
fffffff7
00000012
0000001b
0000001d
00000008
0000001d
0000001e
0000002e
0000001a
00000011
00000009
fffffffc
fffffff8
ffffffea
ffffffec
fffffff0
00000006
00000003
00000009
00000009
fffffff7
fffffffa
fffffffc
0000000e
0000000a
00000018
0000000c
0000000a
00000028
00000013
00000018
00000029
0000000a
fffffffd
00000002
00000007
fffffffc
fffffff4
ffffffec
fffffff2
ffffffed
fffffff0
00000003
0000001a
0000000b
00000011
00000001
0000000b
00000008
00000003
ffffffff
00000014
0000001e
00000017
00000022
0000001c
00000024
0000001b
00000011
00000015
00000011
0000000b
00000019
fffffffc
00000003
fffffff7
fffffff2
fffffff2
ffffffda
ffffffea
ffffffe6
fffffff0
00000000
00000018
ffffffe6
fffffff6
0000000a
00000003
0000000d
00000017
00000028
00000012
00000018
00000027
00000017
0000000f
00000010
0000000e
0000000e
00000009
0000000d
00000013
00000003
fffffff5
fffffff0
ffffffe8
ffffffdf
ffffffd8
ffffffda
ffffffd7
ffffffff
00000003
ffffffd9
fffffffa
fffffff4
fffffff6
00000006
00000012
00000018
00000019
0000001c
00000019
00000001
00000003
00000002
fffffffe
0000000c
00000001
fffffffe
00000006
00000002
00000011
00000011
00000000
ffffffe1
ffffffe2
ffffffd5
ffffffcb
ffffffc5
ffffffc1
ffffffd4
ffffffe1
00000000
0000000c
fffffff9
00000015
00000028
00000022
0000001a
00000009
ffffffff
00000005
fffffff2
fffffff0
ffffffe8
ffffffe8
fffffff2
fffffffe
fffffff8
00000018
00000008
00000006
fffffff0
ffffffc2
ffffffb7
ffffffcb
ffffffb1
ffffffd5
fffffff3
ffffffe3
00000005
fffffff3
fffffff0
00000019
00000015
00000000
fffffffa
00000003
ffffffdb
fffffff0
ffffffee
ffffffdd
fffffff1
fffffff8
ffffffe0
00000006
ffffffff
0000000e
0000001d
00000002
ffffffd3
ffffffb1
ffffffb2
ffffffb3
ffffffb9
ffffffd5
fffffffb
fffffffa
00000006
ffffffed
ffffffe7
ffffffff
00000009
fffffffa
fffffffc
fffffffa
ffffffdd
ffffffdf
ffffffe0
ffffffd0
00000006
00000018
00000022
00000029
00000016
00000030
0000000f
fffffff6
ffffffbf
ffffff9b
ffffffa1
ffffffc6
ffffffb7
ffffffe4
ffffffe8
ffffffe4
00000007
fffffff9
fffffff1
0000000a
00000000
00000003
fffffff9
ffffffe5
ffffffcd
ffffffe7
ffffffec
fffffffd
00000022
00000030
0000002b
00000021
0000001f
0000001d
fffffff8
ffffffd2
ffffffa8
ffffff9f
ffffffc3
ffffffe6
ffffffce
00000007
0000000f
ffffffee
00000002
fffffff4
fffffff3
0000001e
00000007
00000000
ffffffd6
ffffffdf
ffffffd9
fffffff5
0000001b
0000001f
0000002a
0000003e
00000024
00000017
fffffffe
ffffffe6
ffffffce
ffffffa0
ffffffb8
ffffffaa
ffffffbf
ffffffd9
ffffffdd
00000013
00000001
ffffffe5
fffffffc
ffffffe6
fffffff8
fffffffd
fffffff7
fffffff9
ffffffe4
fffffff2
ffffffef
0000001d
00000024
00000028
00000024
00000016
0000001d
00000003
fffffff3
ffffffd3
ffffffc9
ffffffcf
ffffffba
ffffffdd
ffffffea
ffffffee
00000000
0000000f
00000003
ffffffe5
0000000d
fffffffd
fffffff4
ffffffe6
ffffffd6
fffffff7
0000000c
00000011
00000019
00000017
00000011
0000000d
00000003
00000010
00000003
00000002
fffffff6
ffffffed
ffffffe8
ffffffdd
ffffffe9
ffffffe5
fffffffa
0000000b
0000000c
00000017
fffffff1
0000000c
fffffff1
fffffff4
0000000b
fffffff9
fffffff2
00000002
00000003
00000003
0000000e
0000001c
00000004
fffffff7
ffffffed
fffffff6
ffffffff
00000000
ffffffee
ffffffee
fffffff2
00000006
00000012
0000000d
00000002
fffffffe
fffffffe
0000000b
00000008
fffffff6
fffffffe
fffffffc
00000012
00000012
fffffff9
fffffff3
00000004
fffffffe
00000014
0000001e
00000007
ffffffef
ffffffe6
ffffffe5
00000007
00000006
00000002
00000002
00000006
00000017
0000001b
00000021
00000024
00000023
0000000d
0000000b
0000001a
0000001c
00000004
fffffffe
00000007
fffffff0
ffffffe6
ffffffeb
0000000b
0000001f
0000001f
00000022
00000000
fffffffb
ffffffe3
fffffff7
fffffff5
fffffff9
00000000
fffffffa
0000000e
00000019
00000010
00000022
00000021
00000029
00000019
ffffffec
fffffffc
0000000d
fffffffa
fffffff2
0000001e
ffffffe5
ffffffe6
ffffffd7
fffffff3
00000014
00000004
00000015
ffffffe6
ffffffd8
ffffffed
00000008
fffffff2
ffffffec
0000000c
fffffffb
0000000c
0000000d
0000000f
00000015
00000021
00000020
0000000d
ffffffdc
fffffff1
fffffff6
fffffff9
0000001f
0000002e
ffffffe9
fffffff3
ffffffec
fffffffb
fffffff0
00000000
ffffffff
ffffffed
ffffffe9
00000008
00000002
ffffffdc
fffffff9
00000006
00000004
00000004
0000001a
00000022
0000001f
00000020
00000013
ffffffe9
ffffffcf
ffffffee
fffffffb
00000006
fffffff7
ffffffea
fffffff1
ffffffee
00000008
fffffff0
fffffff0
fffffff9
00000008
00000002
ffffffe6
00000005
fffffffd
fffffff8
ffffffe7
fffffff7
fffffffd
00000012
00000012
00000020
0000001e
0000001f
00000003
fffffffd
ffffffe5
ffffffee
ffffffe9
0000000a
fffffff1
fffffffd
ffffffee
ffffffe5
fffffff7
0000000a
00000011
fffffffd
00000015
00000013
fffffffb
fffffff0
fffffff7
fffffff8
fffffff7
fffffffd
fffffffb
00000012
fffffffe
0000001e
00000011
fffffff9
00000007
ffffffe5
ffffffc7
fffffff3
fffffffb
00000001
0000001a
0000001c
fffffffd
ffffffe4
ffffffe2
fffffff4
fffffff2
00000000
00000001
fffffff6
fffffffe
ffffffea
00000003
fffffff3
0000000d
00000008
0000000e
00000000
ffffffff
00000004
fffffff4
00000002
ffffffe7
ffffffc6
ffffffdc
ffffffef
00000009
00000008
00000012
0000002d
00000028
00000004
ffffffe2
00000009
00000000
fffffffd
00000002
00000000
fffffff5
ffffffec
ffffffe8
fffffff0
ffffffff
00000005
fffffffb
00000001
00000011
00000015
00000000
00000008
ffffffdd
ffffffc6
ffffffce
fffffffc
00000008
fffffff7
00000000
00000025
00000017
00000009
ffffffe6
fffffff5
00000006
fffffff6
00000010
00000001
00000001
ffffffef
fffffff4
ffffffef
fffffff4
ffffffed
00000008
0000000f
0000000d
00000012
fffffff6
ffffffe3
ffffffd5
ffffffc9
ffffffe8
fffffffa
00000001
0000000c
fffffff9
0000001b
0000000c
00000014
00000009
00000012
00000021
00000013
00000009
ffffffff
fffffff9
fffffffb
00000008
00000008
fffffff0
00000000
fffffff0
fffffff8
fffffff2
ffffffe2
ffffffe3
ffffffcc
ffffffca
ffffffdd
fffffffc
fffffffb
0000000a
00000007
00000003
00000003
fffffff5
00000010
00000025
00000039
0000003a
00000026
00000024
00000000
fffffff4
fffffff1
fffffffa
fffffff0
fffffffa
ffffffe6
fffffff0
ffffffe3
ffffffef
ffffffe8
ffffffe2
ffffffef
ffffffe0
ffffffea
0000000b
fffffff7
00000006
fffffffe
0000000c
00000000
fffffff9
00000006
0000000a
00000002
ffffffe8
ffffffef
ffffffe8
fffffff3
ffffffed
fffffff6
00000005
ffffffe8
ffffffe1
ffffffe5
ffffffef
ffffffea
ffffffea
ffffffd6
fffffff0
00000003
fffffff2
fffffff1
fffffffd
00000007
00000005
00000000
00000000
fffffffe
00000001
00000002
fffffff5
ffffffec
fffffff9
ffffffee
fffffff1
00000006
fffffff5
fffffff0
fffffff3
ffffffd6
ffffffda
fffffffc
ffffffff
fffffff2
ffffffea
00000005
00000015
00000013
00000017
00000009
00000007
00000007
0000000c
ffffe147
00000000
00000000
00000000
00000000
00000000
00000000
00000000
00000000
00000000
00000000
00000000
00000000
00000000
00000000
00000000
00000000
00000000
00000000
00000000
00000000
00000000
00000000
00000000
00000000
00000000
00000000
00000000
00000000
00000000
00000000
00000000
00000000
00000000
00000000
00000000
00000000
00000000
00000000
00000000
00000000
00000000
00000000
00000000
00000000
00000000
00000000
00000000
00000000
00000000
00000000
00000000
00000000
00000000
00000000
00000000
00000000
00000000
00000000
00000000
00000000
00000000
00000000
00000000
00000000
00000000
00000000
00000000
00000000
00000000
00000000
00000000
00000000
00000000
00000000
00000000
00000000
00000000
00000000
00000000
00000000
00000000
00000000
00000000
00000000
00000000
00000000
00000000
00000000
00000000
00000000
00000000
00000000
00000000
00000000
00000000
00000000
00000000
00000000
00000000
00000000
00000000
00000000
00000000
00000000
00000000
00000000
00000000
00000000
00000000
00000000
00000000
00000000
00000000
00000000
00000000
00000000
00000000
00000000
00000000
00000000
00000000
00000000
00000000
00000000
00000000
00000000
00000000
00000000
00000000
00000000
00000000
00000000
00000000
00000000
00000000
00000000
00000000
00000000
00000000
00000000
00000000
00000000
00000000
00000000
00000000
00000000
00000000
00000000
00000000
00000000
00000000
00000000
00000000
00000000
00000000
00000000
00000000
00000000
00000000
00000000
00000000
00000000
00000000
00000000
00000000
00000000
00000000
00000000
00000000
00000000
00000000
00000000
00000000
00000000
00000000
00000000
00000000
00000000
00000000
00000000
00000000
00000000
00000000
00000000
00000000
00000000
00000000
00000000
00000000
00000000
00000000
00000000
00000000
00000000
00000000
00000000
00000000
00000000
00000000
00000000
00000000
00000000
00000000
00000000
00000000
00000000
00000000
00000000
00000000
00000000
00000000
00000000
00000000
00000000
00000000
00000000
00000000
00000000
00000000
00000000
00000000
00000000
00000000
00000000
00000000
00000000
00000000
00000000
00000000
00000000
00000000
00000000
00000000
00000000
00000000
00000000
00000000
00000000
00000000
