fffffffb
fffffff7
00000000
00000005
00000004
00000000
fffffff7
fffffffa
00000003
fffffff6
fffffff4
00000008
ffffffe6
ffffffe9
00000011
fffffffd
00000002
fffffffe
fffffffa
fffffff9
00000007
0000000d
00000008
fffffff4
fffffff8
fffffffd
fffffffa
00000001
fffffff3
00000008
ffffffff
00000003
ffffffff
00000002
ffffffef
fffffffa
fffffffb
fffffff6
fffffff1
fffffff1
fffffff1
ffffffee
00000014
0000002a
0000001d
0000000c
fffffff5
fffffff5
ffffffeb
fffffffe
ffffffff
ffffffec
00000007
00000005
00000007
00000004
fffffffd
00000006
fffffffa
00000000
fffffffa
ffffffec
ffffffe7
ffffffe1
ffffffdb
ffffffef
fffffffe
00000003
00000000
00000015
0000000a
0000001b
fffffffd
fffffff0
ffffffe2
ffffffda
fffffff2
00000001
fffffff6
00000002
0000001a
00000003
0000000b
00000007
0000000c
fffffffd
00000008
fffffff8
fffffff9
00000011
00000008
0000001a
0000002a
0000000d
fffffff1
00000000
00000012
00000018
00000007
fffffff3
ffffffee
ffffffe4
ffffffe5
ffffffd2
ffffffd6
ffffffd1
ffffffe6
fffffff6
fffffff2
00000001
fffffffb
00000003
00000006
fffffffc
00000023
0000001c
00000019
0000000d
00000009
fffffffc
00000019
0000000d
fffffffb
0000000c
fffffffe
0000000f
fffffff3
ffffffe2
ffffffec
ffffffe7
ffffffeb
ffffffe3
ffffffe2
ffffffc7
fffffff0
ffffffe5
ffffffe5
fffffff4
00000001
00000003
fffffff9
00000006
00000011
00000017
00000028
0000001a
00000014
fffffff9
fffffff2
fffffff3
fffffff9
ffffffff
fffffff9
00000001
fffffffe
0000000c
ffffffea
ffffffe6
ffffffdf
ffffffe1
ffffffeb
ffffffd9
ffffffec
ffffffe9
ffffffe2
fffffff0
fffffff3
fffffff7
fffffff5
0000000f
00000005
0000001d
0000002e
ffffffe6
00000007
00000001
fffffff2
00000001
00000018
0000000f
0000000c
00000010
00000006
00000007
00000007
fffffff4
00000003
ffffffe4
ffffffe2
ffffffed
ffffffd8
ffffffd6
ffffffdf
ffffffe4
fffffffe
fffffff8
00000004
00000018
fffffff1
00000018
00000026
00000000
fffffff7
fffffff0
ffffffff
00000005
00000010
00000004
00000011
0000000c
00000013
0000000d
0000000c
fffffffc
ffffffec
ffffffd6
ffffffe1
ffffffdd
ffffffc8
ffffffde
ffffffd5
fffffff2
00000006
fffffffd
ffffffe9
00000015
ffffffeb
0000000a
00000035
fffffff2
fffffffd
00000002
00000002
0000000c
0000001b
fffffffc
0000000b
00000018
0000001c
0000001c
0000000d
00000007
00000007
fffffffa
ffffffe7
ffffffd8
ffffffdf
ffffffc0
ffffffc4
ffffffdd
00000004
ffffffff
fffffff9
0000000c
00000005
00000018
0000001f
0000000c
0000000b
00000020
00000008
00000007
00000009
00000000
00000006
00000009
00000023
00000027
0000001f
00000011
0000000b
fffffff4
ffffffdd
ffffffe4
ffffffd7
ffffffcc
ffffffc7
ffffffe9
00000014
00000019
00000004
00000006
0000000b
0000001f
00000005
00000005
00000010
00000004
00000001
ffffffec
fffffff9
ffffffec
ffffffe7
00000003
00000016
0000001e
0000001b
00000016
00000013
00000012
ffffffef
ffffffdb
ffffffe0
ffffffc4
ffffffbb
00000003
00000010
00000020
00000002
00000004
0000000d
00000034
00000000
fffffff3
fffffff3
fffffff1
ffffffdb
ffffffe2
ffffffea
fffffff9
fffffff9
fffffffe
0000000c
00000020
00000019
00000011
00000014
0000001f
0000002c
ffffffe9
ffffffd9
ffffffb5
ffffffc9
fffffffe
ffffffff
00000023
ffffffee
fffffff9
0000000a
0000000d
ffffffef
ffffffee
ffffffd7
ffffffd1
ffffffe6
ffffffe8
fffffff5
ffffffec
ffffffef
fffffff7
00000025
00000027
00000015
0000001e
00000021
00000015
ffffffff
ffffffe1
ffffffe8
ffffffd1
fffffff5
0000000f
fffffffb
00000014
00000009
00000000
00000015
00000004
fffffff1
ffffffe3
ffffffe3
fffffff1
ffffffef
fffffff3
ffffffe8
fffffff1
fffffff0
00000016
00000019
00000010
0000001d
00000021
0000000d
0000000e
ffffffed
ffffffeb
fffffff1
fffffff1
00000018
0000000f
00000002
00000003
fffffffb
fffffffd
00000000
00000015
fffffff9
ffffffcc
ffffffee
ffffffee
ffffffed
ffffffeb
fffffffb
fffffff6
0000000a
00000010
00000013
00000016
0000000c
00000001
0000000a
00000008
fffffff0
fffffffc
fffffff7
fffffffd
00000007
fffffff1
0000000f
0000000f
fffffff8
00000016
fffffffe
00000011
fffffffa
ffffffdd
ffffffee
fffffff9
fffffff8
fffffff1
fffffffc
0000000e
0000000f
00000017
00000007
00000006
0000000b
00000008
ffffffff
fffffff6
fffffff3
fffffffe
fffffffd
fffffffc
fffffff4
ffffffe0
fffffffe
0000001a
00000015
00000013
0000002d
0000000f
ffffffed
fffffff2
ffffffed
00000002
fffffffc
00000006
00000008
00000009
00000002
00000013
00000005
fffffffb
fffffff6
fffffffb
0000000a
00000002
fffffff4
fffffffe
fffffffd
ffffffef
0000000e
ffffffe9
00000001
00000012
fffffff6
00000014
00000029
0000000f
00000004
ffffffed
ffffffec
ffffffe5
ffffffec
ffffffeb
00000009
00000000
00000025
00000023
00000010
ffffffff
fffffffa
00000000
fffffffd
fffffffd
fffffff3
fffffffa
00000001
ffffffea
fffffff0
0000000c
00000019
0000002e
00000023
00000027
00000028
0000002b
fffffff9
fffffff5
ffffffeb
ffffffde
ffffffea
ffffffeb
00000007
00000013
0000000b
0000000e
fffffffb
00000007
00000002
00000006
0000000c
00000004
fffffff7
00000003
00000004
fffffff4
ffffffff
00000028
00000029
00000011
00000002
00000018
fffffffb
00000014
00000013
fffffff4
ffffffff
00000007
fffffff0
fffffff2
fffffffa
fffffffc
0000000d
00000004
fffffffe
fffffff9
00000002
00000004
00000016
00000011
00000006
00000004
00000019
fffffff9
fffffff3
00000022
0000001b
00000015
fffffffe
ffffffff
ffffffe8
0000000b
0000000a
ffffffef
00000013
00000010
fffffff7
fffffff8
ffffffff
fffffffe
fffffff1
fffffffe
00000007
fffffffd
00000001
fffffff7
fffffffb
00000004
ffffffff
00000007
0000000e
00000004
00000004
0000000a
00000032
0000000e
00000013
00000015
0000001c
00000022
00000007
fffffff9
fffffff3
00000003
00000005
ffffffef
00000000
fffffffa
fffffff7
ffffffea
fffffff0
fffffffe
00000001
fffffff4
0000000e
00000010
fffffffc
00000007
fffffffa
00000001
ffffffef
00000004
fffffffb
fffffffc
00000015
00000008
00000024
00000034
00000002
00000007
00000008
fffffff4
00000002
ffffffef
fffffffd
fffffff8
fffffff3
ffffffed
fffffff9
fffffff2
ffffffed
00000001
00000003
0000000a
00000009
0000000a
00000011
fffffff9
00000000
ffffffff
fffffffb
fffffffa
00000008
00000001
0000001a
00000038
fffffffb
00000014
0000000c
fffffffa
fffffffb
fffffff7
fffffff4
ffffffff
ffffffed
fffffffa
fffffff3
fffffff5
fffffff2
00000001
0000000e
00000009
00000006
00000011
0000000a
fffffff5
ffffffff
fffffff7
00000006
fffffff8
ffffffff
fffffffd
fffffffb
0000001a
00000047
0000002a
00000026
00000010
fffffffc
fffffff5
ffffffef
fffffff8
ffffffe1
ffffffee
fffffff7
ffffffea
fffffff3
00000002
fffffff4
ffffffff
fffffffe
00000002
fffffff6
00000017
00000014
0000001d
00000012
ffffffff
0000000b
ffffffff
00000010
ffffffdd
00000019
00000032
00000016
00000029
0000003b
00000012
00000001
fffffffb
00000012
00000008
00000001
fffffff6
00000003
ffffffff
00000003
00000006
00000011
fffffffa
ffffffe2
ffffffed
ffffffe8
00000010
ffffffff
00000006
ffffffff
0000000b
00000004
00000007
00000006
00000006
00000008
00000017
00000016
00000021
0000002d
00000014
00000013
00000014
00000033
0000000f
00000024
00000031
0000001b
00000015
00000018
00000023
0000000a
0000001b
fffffffc
fffffff3
fffffff9
fffffff4
fffffff8
00000003
00000005
fffffff9
fffffff8
ffffffed
0000000b
00000005
0000000a
00000015
0000001e
00000018
00000025
0000000d
00000037
0000003a
00000039
00000026
0000002c
0000002a
00000027
00000026
00000025
fffffffc
fffffff6
0000000b
fffffffa
ffffffff
fffff4e2
00000000
00000000
00000000
00000000
00000000
00000000
00000000
00000000
00000000
00000000
00000000
00000000
00000000
00000000
00000000
00000000
00000000
00000000
00000000
00000000
00000000
00000000
00000000
00000000
00000000
00000000
00000000
00000000
00000000
00000000
00000000
00000000
00000000
00000000
00000000
00000000
00000000
00000000
00000000
00000000
00000000
00000000
00000000
00000000
00000000
00000000
00000000
00000000
00000000
00000000
00000000
00000000
00000000
00000000
00000000
00000000
00000000
00000000
00000000
00000000
00000000
00000000
00000000
00000000
00000000
00000000
00000000
00000000
00000000
00000000
00000000
00000000
00000000
00000000
00000000
00000000
00000000
00000000
00000000
00000000
00000000
00000000
00000000
00000000
00000000
00000000
00000000
00000000
00000000
00000000
00000000
00000000
00000000
00000000
00000000
00000000
00000000
00000000
00000000
00000000
00000000
00000000
00000000
00000000
00000000
00000000
00000000
00000000
00000000
00000000
00000000
00000000
00000000
00000000
00000000
00000000
00000000
00000000
00000000
00000000
00000000
00000000
00000000
00000000
00000000
00000000
00000000
00000000
00000000
00000000
00000000
00000000
00000000
00000000
00000000
00000000
00000000
00000000
00000000
00000000
00000000
00000000
00000000
00000000
00000000
00000000
00000000
00000000
00000000
00000000
00000000
00000000
00000000
00000000
00000000
00000000
00000000
00000000
00000000
00000000
00000000
00000000
00000000
00000000
00000000
00000000
00000000
00000000
00000000
00000000
00000000
00000000
00000000
00000000
00000000
00000000
00000000
00000000
00000000
00000000
00000000
00000000
00000000
00000000
00000000
00000000
00000000
00000000
00000000
00000000
00000000
00000000
00000000
00000000
00000000
00000000
00000000
00000000
00000000
00000000
00000000
00000000
00000000
00000000
00000000
00000000
00000000
00000000
00000000
00000000
00000000
00000000
00000000
00000000
00000000
00000000
00000000
00000000
00000000
00000000
00000000
00000000
00000000
00000000
00000000
00000000
00000000
00000000
00000000
00000000
00000000
00000000
00000000
00000000
00000000
00000000
00000000
00000000
00000000
